<s>	0
<pad>	0
</s>	0
<unk>	0
▁the	-2.70627
s	-3.16752
▁a	-3.8257
▁of	-3.85173
▁in	-3.96029
▁to	-4.03078
▁is	-4.07776
▁and	-4.35319
▁was	-4.76421
▁he	-4.84882
ed	-4.86726
▁it	-4.91159
▁be	-4.91886
▁you	-4.94235
▁for	-4.96902
▁are	-5.00371
ing	-5.0082
▁that	-5.15616
▁on	-5.17888
▁with	-5.18761
▁this	-5.26091
d	-5.28228
▁as	-5.36612
▁his	-5.38349
e	-5.42197
▁i	-5.42975
▁not	-5.45017
ly	-5.47383
y	-5.51954
er	-5.56076
▁at	-5.57025
▁from	-5.60084
▁	-5.62296
▁do	-5.63108
▁can	-5.65332
▁have	-5.65982
▁there	-5.71814
n	-5.72476
▁also	-5.73297
▁an	-5.76278
en	-5.77075
▁by	-5.79585
t	-5.86374
▁has	-5.86835
nt	-5.8734
▁one	-5.87578
al	-5.95996
▁she	-5.98634
▁were	-6.00135
r	-6.13774
▁we	-6.17474
▁time	-6.20532
▁all	-6.21526
▁but	-6.22464
a	-6.26695
▁her	-6.29057
▁they	-6.29941
▁only	-6.31864
▁or	-6.33924
es	-6.34914
▁after	-6.36148
▁no	-6.36544
▁will	-6.38109
c	-6.38792
p	-6.40785
▁two	-6.43814
o	-6.44764
▁what	-6.45232
▁up	-6.46962
▁out	-6.4855
▁me	-6.49158
▁your	-6.49214
▁first	-6.50136
▁so	-6.50382
▁like	-6.51866
▁had	-6.54984
▁if	-6.55531
▁its	-6.60247
▁more	-6.62563
▁does	-6.63187
m	-6.63695
▁other	-6.64636
▁my	-6.67863
l	-6.71383
▁into	-6.72732
▁how	-6.7348
▁when	-6.73623
▁new	-6.73862
i	-6.74484
▁now	-6.76323
▁just	-6.76325
▁about	-6.78613
in	-6.78757
▁their	-6.79731
▁here	-6.80896
▁well	-6.81131
▁over	-6.81178
ic	-6.82719
▁then	-6.83758
▁should	-6.84832
▁who	-6.85066
▁get	-6.85261
u	-6.87766
b	-6.87774
ation	-6.88132
▁some	-6.88815
▁would	-6.8897
▁still	-6.89069
g	-6.91427
▁did	-6.92007
▁people	-6.93768
▁which	-6.94231
▁him	-6.94258
k	-6.94363
ion	-6.94667
le	-6.9489
▁s	-6.94917
▁re	-6.95627
▁used	-6.95727
▁many	-6.96752
▁however	-6.97478
f	-6.97761
▁could	-6.98567
▁go	-6.98648
▁un	-6.99706
or	-6.9973
▁again	-7.02021
▁during	-7.0226
re	-7.03179
la	-7.0366
▁most	-7.03727
▁part	-7.03962
▁place	-7.05914
te	-7.09408
ri	-7.09432
▁these	-7.10245
▁even	-7.10497
▁work	-7.113
▁today	-7.12368
▁de	-7.12379
▁already	-7.13953
▁three	-7.13953
▁way	-7.14253
▁e	-7.15647
▁always	-7.15663
ch	-7.167
▁same	-7.17107
▁through	-7.17144
▁city	-7.17521
▁name	-7.1773
us	-7.17997
li	-7.1847
▁later	-7.19344
▁german	-7.20506
▁right	-7.20993
▁than	-7.21075
▁long	-7.21348
h	-7.21682
el	-7.22071
▁war	-7.22957
▁back	-7.23026
on	-7.23351
▁year	-7.23649
▁want	-7.24249
▁world	-7.25313
▁old	-7.25339
ra	-7.25442
▁years	-7.25545
▁end	-7.25573
an	-7.26251
ck	-7.26695
▁take	-7.26774
▁g	-7.28056
ce	-7.28245
ers	-7.3171
▁why	-7.32339
cause	-7.32343
▁where	-7.33141
▁al	-7.34444
▁school	-7.34833
able	-7.35382
z	-7.35561
▁made	-7.35675
▁under	-7.35861
it	-7.35955
w	-7.36607
▁too	-7.3692
▁know	-7.37725
▁water	-7.38678
▁make	-7.38814
▁good	-7.39374
▁look	-7.39877
▁without	-7.40288
▁area	-7.4054
▁c	-7.40781
▁every	-7.40829
▁v	-7.40882
se	-7.41077
ar	-7.4156
▁please	-7.42224
▁off	-7.4361
very	-7.43751
▁see	-7.45392
▁use	-7.45978
▁them	-7.46078
▁any	-7.46501
▁became	-7.46716
▁b	-7.47082
▁often	-7.47217
▁last	-7.47555
th	-7.47762
▁different	-7.48441
st	-7.49126
is	-7.49603
▁both	-7.49841
▁day	-7.49888
ian	-7.50259
ur	-7.50482
▁located	-7.50716
▁four	-7.51026
▁o	-7.51346
ro	-7.52072
▁car	-7.5215
▁think	-7.52656
▁before	-7.53312
▁am	-7.53378
▁sever	-7.53705
▁let	-7.53785
ia	-7.5395
▁between	-7.55738
▁second	-7.56196
ve	-7.56398
il	-7.5649
est	-7.56541
▁such	-7.56747
▁much	-7.57254
de	-7.58351
▁district	-7.58599
▁need	-7.58627
▁own	-7.59176
▁put	-7.59684
▁p	-7.60468
▁ver	-7.61032
▁family	-7.61414
ne	-7.62139
ll	-7.62237
▁side	-7.6338
x	-7.63483
▁t	-7.63747
▁another	-7.64312
▁high	-7.64639
ter	-7.6471
▁co	-7.65529
▁left	-7.66887
▁lot	-7.66891
▁bo	-7.67488
▁found	-7.67645
▁important	-7.67987
▁called	-7.68078
▁something	-7.68125
ies	-7.68376
▁state	-7.68384
▁children	-7.68685
▁town	-7.68688
▁church	-7.70939
▁life	-7.71233
▁main	-7.72073
lo	-7.72195
▁small	-7.72429
▁light	-7.72439
ul	-7.7253
▁our	-7.72794
▁five	-7.72859
▁down	-7.73838
ble	-7.74046
▁free	-7.74063
▁hand	-7.75078
▁really	-7.75079
ma	-7.75126
▁im	-7.75526
▁each	-7.75647
▁next	-7.75764
ity	-7.75769
▁being	-7.76026
▁point	-7.76527
til	-7.76627
▁must	-7.77014
▁since	-7.77131
▁k	-7.77152
▁took	-7.7728
▁further	-7.77584
▁man	-7.77609
▁around	-7.77732
ist	-7.77753
▁f	-7.78297
▁university	-7.78344
ol	-7.78447
ment	-7.78665
na	-7.79349
▁st	-7.79533
▁addition	-7.79804
▁building	-7.80172
▁cannot	-7.80521
um	-7.80528
▁known	-7.81008
▁come	-7.81182
▁got	-7.81369
▁against	-7.81619
▁possible	-7.81626
▁mar	-7.84056
v	-7.84365
▁li	-7.84413
▁few	-7.84548
ta	-7.84762
▁worked	-7.8548
▁due	-7.85641
▁company	-7.85844
et	-7.85884
vi	-7.85913
▁d	-7.86189
▁head	-7.86403
▁us	-7.86575
ry	-7.86773
▁give	-7.86965
▁never	-7.87023
tic	-7.87836
▁team	-7.87931
ally	-7.88497
▁national	-7.88703
▁con	-7.88749
ge	-7.88783
▁course	-7.89065
▁la	-7.89188
▁music	-7.89259
▁great	-7.89391
ting	-7.89582
▁little	-7.89906
land	-7.90994
co	-7.91238
ive	-7.91345
▁going	-7.92291
▁village	-7.92884
▁station	-7.9318
▁lead	-7.93466
▁public	-7.93768
▁home	-7.94069
▁open	-7.94184
▁belong	-7.94312
▁away	-7.9444
▁play	-7.94529
ine	-7.94623
▁film	-7.94929
go	-7.94935
▁works	-7.94966
▁help	-7.94997
▁ha	-7.95262
▁le	-7.95544
▁best	-7.9562
▁di	-7.95692
▁far	-7.96087
▁came	-7.96329
man	-7.96363
at	-7.96505
▁himself	-7.96684
▁together	-7.96685
refore	-7.97261
most	-7.97272
▁air	-7.97658
ie	-7.97701
▁ten	-7.97809
▁everything	-7.97986
▁member	-7.98169
▁system	-7.98193
▁large	-7.98458
▁short	-7.98503
▁germany	-7.9883
▁center	-7.99356
▁mo	-7.9941
ary	-7.99428
▁better	-8.00068
▁among	-8.0064
ut	-8.00667
▁find	-8.00866
▁form	-8.01337
▁considered	-8.01783
▁bad	-8.02012
▁law	-8.02061
ke	-8.02699
▁north	-8.03052
▁usual	-8.03179
mp	-8.03428
▁office	-8.03683
▁case	-8.03746
ner	-8.03747
▁group	-8.03802
▁cant	-8.03912
▁house	-8.04108
▁times	-8.04626
am	-8.05271
▁son	-8.06025
▁sch	-8.06407
▁played	-8.06422
▁result	-8.06537
id	-8.07228
▁father	-8.07405
ti	-8.07557
to	-8.07939
▁everyone	-8.08031
me	-8.0834
▁berlin	-8.08433
▁turn	-8.08546
▁nothing	-8.08853
▁ra	-8.08994
▁south	-8.09036
▁once	-8.09065
▁pre	-8.09173
▁show	-8.09222
as	-8.09233
ate	-8.09337
▁red	-8.0968
▁order	-8.10073
ted	-8.10159
▁lo	-8.10618
ca	-8.10801
▁west	-8.10886
ous	-8.11564
less	-8.11769
da	-8.11864
▁power	-8.12014
▁room	-8.12758
age	-8.12815
▁bar	-8.13021
▁built	-8.13105
ig	-8.13247
▁number	-8.13361
▁enough	-8.13541
ci	-8.13692
bi	-8.1396
▁set	-8.14415
▁sa	-8.1451
▁front	-8.1464
▁bit	-8.147
▁per	-8.14896
ated	-8.15167
▁become	-8.15308
▁black	-8.15766
ard	-8.15778
ga	-8.15863
▁may	-8.16132
▁land	-8.16246
▁live	-8.166
▁construction	-8.16659
mi	-8.17509
ish	-8.17923
▁real	-8.17943
▁fire	-8.18132
▁pro	-8.18137
sh	-8.18328
▁line	-8.18662
▁studied	-8.18929
▁service	-8.19217
be	-8.19247
▁ro	-8.19358
▁local	-8.19399
▁keep	-8.19624
mann	-8.19647
ism	-8.19915
▁married	-8.2009
ther	-8.20174
▁ru	-8.20226
▁middle	-8.20324
▁completely	-8.20455
▁named	-8.20553
▁behind	-8.20557
▁role	-8.20747
▁sometimes	-8.20793
▁season	-8.20808
▁someone	-8.21298
▁soon	-8.2144
▁stop	-8.21934
▁party	-8.22045
ler	-8.22192
▁things	-8.22485
au	-8.22658
▁yet	-8.22705
berg	-8.23425
min	-8.23726
ling	-8.24001
▁following	-8.24103
▁band	-8.24133
ton	-8.24358
▁term	-8.24459
▁white	-8.24625
▁call	-8.24829
rs	-8.24902
▁po	-8.25146
ness	-8.25151
▁means	-8.25265
ff	-8.25292
▁say	-8.25431
▁stay	-8.25599
▁six	-8.25822
▁age	-8.25837
▁history	-8.26192
▁mainly	-8.26328
▁close	-8.26541
▁castle	-8.26625
▁longer	-8.26696
▁u	-8.26736
▁round	-8.27368
▁lu	-8.2777
▁love	-8.27829
▁anything	-8.27852
▁half	-8.28611
▁region	-8.28817
▁association	-8.29376
▁art	-8.29859
▁language	-8.2988
▁period	-8.29889
ot	-8.29975
▁park	-8.29999
▁probably	-8.30147
▁wall	-8.3026
▁others	-8.30607
▁went	-8.30727
▁community	-8.30924
▁special	-8.31144
▁eight	-8.31194
▁river	-8.31201
▁big	-8.31569
▁example	-8.31708
▁position	-8.31739
▁started	-8.32151
di	-8.3219
▁numerous	-8.32497
▁quickly	-8.3261
no	-8.32899
▁change	-8.3291
▁whole	-8.32972
▁international	-8.33027
▁lives	-8.33131
▁according	-8.33209
ho	-8.3324
▁former	-8.33406
ty	-8.33521
▁instead	-8.33559
▁run	-8.33767
▁street	-8.33827
▁ta	-8.33947
▁east	-8.34081
▁afterwards	-8.34098
▁hu	-8.34219
▁yourself	-8.34363
▁death	-8.34386
▁comes	-8.34447
▁mr	-8.3447
▁train	-8.3456
▁try	-8.34717
▁hundred	-8.34903
ru	-8.34932
▁ka	-8.34963
▁ho	-8.3537
ni	-8.35384
ber	-8.35872
▁else	-8.36057
▁food	-8.36266
▁received	-8.36473
ad	-8.36501
▁court	-8.36541
va	-8.36716
▁na	-8.36806
▁various	-8.36819
▁read	-8.3686
▁actually	-8.36897
▁lies	-8.3701
▁federal	-8.37092
▁mu	-8.37551
pp	-8.37642
▁test	-8.37747
▁ma	-8.37794
ance	-8.37902
bo	-8.38061
▁based	-8.38517
ir	-8.38802
ant	-8.39066
▁those	-8.39336
▁h	-8.39538
ial	-8.39555
ph	-8.40255
▁career	-8.40259
▁dis	-8.40728
bu	-8.40877
▁hard	-8.40894
▁pa	-8.40976
om	-8.41251
son	-8.41651
▁seem	-8.41971
▁clear	-8.42069
▁early	-8.422
▁common	-8.42203
▁board	-8.42341
▁research	-8.4299
sch	-8.43001
▁project	-8.43077
gg	-8.43104
▁start	-8.43281
▁thing	-8.4357
▁followed	-8.43711
op	-8.44132
▁ca	-8.4437
▁general	-8.44434
▁wants	-8.44536
▁money	-8.44557
▁capital	-8.44855
tu	-8.45012
ka	-8.45147
▁english	-8.45154
▁w	-8.45391
mo	-8.45443
▁market	-8.45487
ent	-8.45556
▁reason	-8.45581
▁process	-8.45794
▁list	-8.46359
▁te	-8.46383
▁production	-8.46398
▁country	-8.46405
▁oh	-8.46414
▁support	-8.46497
▁won	-8.46577
▁night	-8.46667
▁individual	-8.4697
▁club	-8.4713
▁post	-8.47372
▁believe	-8.47482
▁sp	-8.47492
▁class	-8.47659
cy	-8.47834
▁title	-8.48199
▁while	-8.4822
▁road	-8.48541
▁hall	-8.48822
▁r	-8.48827
pe	-8.48942
▁game	-8.48987
▁remained	-8.49069
▁se	-8.49256
▁espe	-8.49764
▁lower	-8.49765
ha	-8.49788
▁body	-8.49794
▁human	-8.49796
gen	-8.50083
▁wood	-8.50113
▁ri	-8.50211
▁da	-8.50218
▁young	-8.50396
▁ill	-8.50459
he	-8.50517
▁pe	-8.50534
▁forest	-8.50639
▁va	-8.50679
▁french	-8.50703
▁said	-8.51065
▁lost	-8.51122
▁model	-8.5143
▁past	-8.51445
▁person	-8.51579
▁transport	-8.51661
▁bring	-8.51698
cially	-8.51822
▁field	-8.52074
▁seen	-8.52273
▁en	-8.52282
▁near	-8.52663
▁ge	-8.52694
▁business	-8.5275
▁working	-8.52773
tz	-8.52852
▁active	-8.52977
▁data	-8.52994
▁space	-8.5302
▁job	-8.53032
▁remove	-8.53169
▁child	-8.53257
▁hold	-8.53339
ver	-8.53486
▁mostly	-8.53526
▁top	-8.53531
▁military	-8.53597
▁level	-8.53597
▁allowed	-8.53618
▁development	-8.53946
▁cross	-8.53961
▁mother	-8.5397
mb	-8.54228
▁least	-8.54252
▁ti	-8.54328
▁initially	-8.54328
▁author	-8.54527
▁book	-8.54598
▁care	-8.54609
ure	-8.54641
▁wont	-8.55011
▁talk	-8.55234
ized	-8.55768
▁color	-8.55768
und	-8.5581
▁consist	-8.55901
▁voice	-8.5591
▁cause	-8.55943
▁ever	-8.56135
▁thought	-8.56483
▁makes	-8.56503
▁education	-8.56577
▁strong	-8.5683
▁ex	-8.56857
▁drive	-8.56893
▁official	-8.56922
▁natural	-8.56931
▁pi	-8.56945
▁currently	-8.56964
lu	-8.57
ster	-8.57121
▁railway	-8.57257
▁interest	-8.57296
▁dog	-8.5734
hr	-8.57425
▁ice	-8.57496
▁beginning	-8.57591
▁matter	-8.57613
▁present	-8.57733
▁finally	-8.57981
▁seat	-8.58016
ger	-8.58019
ical	-8.58178
▁single	-8.58327
▁purpose	-8.58614
▁bi	-8.58804
lin	-8.58808
▁word	-8.58809
do	-8.58859
▁difficult	-8.58958
▁route	-8.58961
▁government	-8.58963
im	-8.59154
▁similar	-8.59303
▁teacher	-8.59307
▁available	-8.59649
▁cut	-8.59762
ten	-8.59851
▁europe	-8.59935
▁subject	-8.59996
▁league	-8.60345
▁series	-8.60369
▁fall	-8.60525
▁european	-8.60764
▁sun	-8.60805
▁bank	-8.61185
▁du	-8.61318
▁seven	-8.61326
▁central	-8.61399
we	-8.61427
os	-8.61811
▁break	-8.6218
▁lake	-8.62213
▁blue	-8.62462
▁kind	-8.62486
▁men	-8.62513
▁follow	-8.62814
▁species	-8.62818
▁ju	-8.62954
▁pass	-8.63207
▁tell	-8.63273
▁mean	-8.63334
▁american	-8.63356
▁plant	-8.63447
▁program	-8.63535
ach	-8.63549
▁born	-8.6366
▁green	-8.63678
▁social	-8.63843
▁ground	-8.6398
▁yes	-8.64371
▁died	-8.64392
▁view	-8.64623
▁hair	-8.64676
▁tri	-8.64688
▁sea	-8.64727
▁leave	-8.6486
ts	-8.64954
▁nine	-8.65066
▁current	-8.653
▁em	-8.65364
▁ko	-8.65401
▁twenty	-8.65722
▁gra	-8.65736
▁thus	-8.658
▁developed	-8.66212
▁upper	-8.6623
▁door	-8.66324
▁council	-8.66461
▁sound	-8.66563
▁wanted	-8.66691
▁song	-8.66722
▁depend	-8.66809
▁roman	-8.66856
ology	-8.66886
▁island	-8.66971
▁learn	-8.6719
les	-8.67596
▁tower	-8.67629
▁fact	-8.67759
▁success	-8.67978
▁maybe	-8.68041
▁taken	-8.68129
▁created	-8.68148
▁additional	-8.68175
▁days	-8.68193
un	-8.6822
hi	-8.68336
▁members	-8.68343
▁full	-8.6835
▁stand	-8.68474
▁idea	-8.68577
▁count	-8.68882
▁fish	-8.68893
▁third	-8.69093
▁final	-8.69171
▁act	-8.69335
ship	-8.69447
▁garden	-8.69481
▁text	-8.69858
▁taste	-8.69889
▁mi	-8.7003
▁themselves	-8.70243
▁less	-8.70297
▁regional	-8.70316
▁stone	-8.70406
▁week	-8.70465
▁sta	-8.70595
▁museum	-8.70629
▁police	-8.70629
▁ne	-8.70762
▁hi	-8.70909
▁moved	-8.71004
▁rest	-8.71045
wa	-8.7124
▁needs	-8.71282
▁album	-8.71406
▁held	-8.71435
▁animals	-8.71475
▁th	-8.71768
▁jo	-8.71779
▁itself	-8.71797
▁el	-8.71888
▁published	-8.72008
em	-8.72089
▁vo	-8.72157
▁drink	-8.72188
ization	-8.7225
▁takes	-8.72441
▁goal	-8.72492
▁organ	-8.72513
▁control	-8.72565
▁economic	-8.72582
▁low	-8.72633
der	-8.72775
▁women	-8.72984
▁anymore	-8.73029
▁cup	-8.73035
io	-8.73041
▁master	-8.73106
mar	-8.73113
▁gas	-8.7319
▁machine	-8.73207
▁successful	-8.73365
▁areas	-8.73396
▁pay	-8.73439
▁director	-8.73455
▁feel	-8.73615
▁looks	-8.73863
▁ba	-8.74126
▁hit	-8.74243
▁design	-8.74253
ful	-8.74386
▁within	-8.74423
▁written	-8.74574
burg	-8.74581
▁version	-8.74585
▁rock	-8.74749
▁step	-8.74817
▁heat	-8.74828
▁famous	-8.74977
▁understand	-8.74986
ng	-8.75294
▁certain	-8.75382
▁sleep	-8.75382
▁information	-8.75418
▁style	-8.75584
▁ni	-8.75616
▁responsible	-8.758
▁political	-8.76182
▁traffic	-8.76197
ba	-8.76235
▁port	-8.76382
▁attack	-8.76611
▁ste	-8.76825
tor	-8.76872
▁mark	-8.76902
▁border	-8.77017
▁population	-8.77018
▁supposed	-8.77018
led	-8.77253
nna	-8.77405
▁done	-8.77532
▁wine	-8.77581
▁training	-8.77626
▁track	-8.77915
▁su	-8.77994
ern	-8.78244
▁easy	-8.78264
▁honor	-8.78264
▁gets	-8.78325
ow	-8.78406
▁card	-8.78494
▁neu	-8.78662
▁along	-8.78672
▁material	-8.78681
▁m	-8.78734
▁department	-8.79106
▁ask	-8.79226
▁rath	-8.79505
▁structure	-8.79523
▁je	-8.79659
▁parents	-8.79919
▁direction	-8.8001
▁floor	-8.80048
bach	-8.80109
vo	-8.80275
▁via	-8.80357
▁nature	-8.80377
▁anyone	-8.80408
dy	-8.80462
▁stage	-8.8075
▁either	-8.808
▁king	-8.80939
▁cool	-8.80951
▁popular	-8.81188
▁whe	-8.81202
▁wa	-8.81252
▁player	-8.81404
que	-8.81424
ac	-8.81638
▁cold	-8.81664
▁influence	-8.81676
▁moment	-8.81754
▁radio	-8.81767
▁wrote	-8.82093
ran	-8.82151
ron	-8.82173
▁daughter	-8.82301
▁original	-8.82308
▁army	-8.82318
▁anti	-8.82354
▁ball	-8.8256
▁towards	-8.82577
▁led	-8.82643
▁remains	-8.82675
▁pu	-8.82718
▁professional	-8.82737
▁speak	-8.82877
up	-8.83302
▁began	-8.83366
▁modern	-8.83404
pa	-8.83445
▁manage	-8.83573
▁walk	-8.83668
▁watch	-8.83845
▁mountain	-8.83846
▁sense	-8.83846
if	-8.83893
▁nice	-8.83963
▁exactly	-8.83987
rk	-8.84268
▁wrong	-8.84286
▁n	-8.84292
▁anyway	-8.84343
rought	-8.84418
▁bra	-8.84431
▁value	-8.8474
▁return	-8.84847
▁deal	-8.84859
▁store	-8.85087
▁bus	-8.85137
▁using	-8.85265
▁eat	-8.85301
▁largest	-8.85341
▁games	-8.85393
▁goes	-8.85543
▁mind	-8.85735
wi	-8.85759
▁eye	-8.86125
ize	-8.86178
more	-8.86232
▁brother	-8.86483
▁god	-8.865
▁focus	-8.86529
▁performance	-8.86541
▁die	-8.86553
▁above	-8.86985
▁risk	-8.86989
▁boy	-8.87316
▁living	-8.8744
▁southern	-8.87477
▁dead	-8.8757
▁studies	-8.87898
▁entire	-8.87935
den	-8.87936
▁grew	-8.87956
▁pull	-8.87975
▁minutes	-8.88286
▁private	-8.88397
gu	-8.88551
▁necessary	-8.88822
▁self	-8.88823
way	-8.88913
▁lack	-8.89007
▁pan	-8.89063
▁gu	-8.89203
▁si	-8.89213
▁changed	-8.89236
▁civil	-8.89287
▁question	-8.89293
▁plan	-8.89299
▁contract	-8.89316
ak	-8.89359
▁action	-8.89405
▁roll	-8.8951
ite	-8.89603
▁technical	-8.89755
▁outside	-8.89883
▁ch	-8.90035
▁location	-8.90224
▁buried	-8.90225
▁carrie	-8.90236
▁doing	-8.90273
▁hope	-8.90553
▁bu	-8.90617
▁check	-8.90766
▁total	-8.90785
▁hours	-8.90927
▁playing	-8.91012
ors	-8.91026
▁leaves	-8.91337
▁cla	-8.91358
▁given	-8.91606
▁experience	-8.91618
ium	-8.91624
▁story	-8.91702
▁bre	-8.91792
tra	-8.91867
▁sand	-8.91911
▁guy	-8.92049
▁lived	-8.92234
▁award	-8.92465
ator	-8.92471
▁hot	-8.92599
▁beside	-8.92745
▁shows	-8.92942
▁brown	-8.93089
▁wife	-8.93097
▁served	-8.93099
▁prevent	-8.93104
▁immediately	-8.93155
▁ship	-8.93195
▁sub	-8.93247
▁approach	-8.93574
▁particular	-8.93639
▁bri	-8.93794
▁turned	-8.93929
▁base	-8.94028
▁network	-8.94063
▁task	-8.94069
▁municipality	-8.94091
▁northern	-8.94104
▁race	-8.94305
▁sign	-8.94493
▁include	-8.9454
▁temperature	-8.94552
▁christian	-8.94579
▁serve	-8.94751
▁trade	-8.94896
▁buy	-8.94942
▁simpl	-8.95019
▁administrative	-8.95044
▁dark	-8.95114
▁star	-8.95131
▁coat	-8.95298
▁table	-8.95374
▁groups	-8.95444
▁parts	-8.95507
▁basic	-8.95549
ell	-8.95655
▁protect	-8.95659
▁youth	-8.95696
per	-8.95858
▁clean	-8.95863
▁though	-8.95879
mu	-8.95906
▁study	-8.96037
nder	-8.96275
▁plays	-8.9632
▁paul	-8.96417
▁terms	-8.96457
▁size	-8.96466
▁president	-8.9654
red	-8.96614
▁foundation	-8.96911
▁operation	-8.9711
▁face	-8.97128
▁students	-8.97309
▁particularly	-8.97476
mer	-8.97506
▁record	-8.97522
▁win	-8.9785
▁continued	-8.98017
▁industry	-8.98052
▁travel	-8.98053
▁deep	-8.98072
▁historical	-8.98098
▁cell	-8.98154
▁sure	-8.98167
line	-8.98389
▁fe	-8.98409
ric	-8.98422
▁decision	-8.98562
▁couple	-8.98562
▁horse	-8.98565
▁cat	-8.98605
▁inter	-8.98676
▁produced	-8.98725
ide	-8.98732
▁happen	-8.98773
▁wi	-8.98922
▁cap	-8.98969
▁pressure	-8.9909
▁doctor	-8.99194
▁buildings	-8.99243
▁cha	-8.99522
▁function	-8.99607
▁monastery	-9.00109
▁thousand	-9.00109
▁feature	-9.00113
▁tour	-9.00169
▁connection	-9.00179
men	-9.00179
▁speed	-9.00216
▁move	-9.00228
▁oil	-9.00421
▁arms	-9.00424
▁sports	-9.00655
▁unfortunately	-9.00657
tro	-9.00731
▁non	-9.00825
▁tree	-9.00895
▁hands	-9.00901
ists	-9.00984
taking	-9.01051
▁ear	-9.01105
▁difference	-9.01174
▁listen	-9.01179
▁wide	-9.01299
mon	-9.0148
▁date	-9.01653
▁somehow	-9.0168
▁battle	-9.01685
ki	-9.0172
▁jump	-9.01725
▁key	-9.02065
▁actor	-9.02069
▁ki	-9.02108
▁thirty	-9.02208
▁hamburg	-9.02209
▁nobody	-9.02209
▁settlement	-9.02222
▁closed	-9.02233
▁type	-9.02307
bra	-9.02636
▁search	-9.02742
▁despi	-9.0275
▁legal	-9.0287
ier	-9.02897
itz	-9.03001
▁regard	-9.03139
▁blood	-9.03275
▁site	-9.03369
▁heart	-9.03606
▁champion	-9.03796
▁companies	-9.03813
▁theater	-9.04002
▁books	-9.04366
▁organization	-9.04376
▁leg	-9.04437
▁fell	-9.04535
▁gav	-9.04591
ius	-9.04596
ich	-9.04603
▁gold	-9.04632
▁grave	-9.04647
fa	-9.04694
▁valley	-9.049
▁extreme	-9.04938
▁covered	-9.05061
▁sal	-9.05197
▁plants	-9.05211
▁z	-9.05252
▁secret	-9.05409
▁section	-9.05443
▁distance	-9.05443
▁standard	-9.05484
▁magazine	-9.05993
▁tomorrow	-9.05993
▁san	-9.06068
▁protection	-9.06099
▁whats	-9.06313
▁para	-9.06335
▁attention	-9.06556
▁share	-9.0661
▁primari	-9.06659
▁glass	-9.06906
nz	-9.06908
▁ran	-9.06921
▁unit	-9.07051
▁catholic	-9.07101
▁contact	-9.07101
▁munich	-9.07101
▁county	-9.07111
ill	-9.07163
▁pick	-9.07224
▁range	-9.07436
▁code	-9.07468
▁knows	-9.07583
▁origin	-9.07657
▁degree	-9.07659
▁otherwise	-9.07659
▁bottle	-9.07676
▁provide	-9.07718
▁bear	-9.08067
▁across	-9.08221
▁movement	-9.08266
▁ke	-9.08658
▁fight	-9.08719
▁province	-9.08786
▁double	-9.08788
▁spot	-9.08836
▁established	-9.08984
hl	-9.09141
▁fo	-9.09229
heim	-9.09255
ud	-9.0932
▁scientific	-9.09354
▁yellow	-9.09354
▁originally	-9.09376
▁cities	-9.09411
▁simple	-9.09417
▁apparently	-9.09426
▁eyes	-9.09465
▁reached	-9.09534
▁letter	-9.09597
▁directly	-9.09724
▁effect	-9.09744
bert	-9.0978
▁save	-9.09816
▁lay	-9.09899
▁phone	-9.09931
▁cre	-9.09941
▁earth	-9.09988
ok	-9.10089
ina	-9.10092
▁lie	-9.10316
▁sentence	-9.10378
▁france	-9.10501
▁true	-9.10502
▁trains	-9.10689
▁tra	-9.10689
▁suit	-9.10693
▁higher	-9.10994
▁friend	-9.11077
▁attempt	-9.11079
▁cemetery	-9.11079
▁cultural	-9.11079
▁monument	-9.11079
▁roof	-9.11079
▁demand	-9.1108
▁driver	-9.11152
feld	-9.11172
▁sentences	-9.11202
▁musical	-9.1133
▁mrs	-9.1133
▁report	-9.1152
ven	-9.11643
▁entrance	-9.1166
▁marriage	-9.1166
▁situation	-9.1166
▁computer	-9.1166
▁minister	-9.1166
▁rules	-9.1175
▁shortly	-9.11801
▁union	-9.11877
▁happened	-9.11956
▁problem	-9.12197
lar	-9.12201
▁competition	-9.12245
▁division	-9.12245
▁create	-9.12496
▁nor	-9.12698
▁multiple	-9.12836
▁cover	-9.1284
▁throw	-9.1285
▁slowly	-9.13032
▁austria	-9.13105
▁hardly	-9.13112
ze	-9.13213
▁ku	-9.13284
▁finished	-9.13311
row	-9.13358
▁mistake	-9.13425
▁technology	-9.13425
▁vienna	-9.13425
▁british	-9.13425
▁divided	-9.13603
tan	-9.13642
▁ski	-9.13673
▁wind	-9.13928
▁document	-9.13985
ag	-9.1399
▁happy	-9.1402
▁answer	-9.14021
▁completed	-9.14074
▁names	-9.14151
▁painting	-9.14207
▁charge	-9.14449
▁hear	-9.14522
▁apart	-9.14583
▁surface	-9.14619
▁weather	-9.1462
▁formed	-9.14697
▁path	-9.14847
▁print	-9.14861
▁founded	-9.14984
▁develop	-9.15007
▁decided	-9.15017
▁host	-9.15099
the	-9.15099
▁coming	-9.15117
▁build	-9.15154
▁major	-9.15178
▁figure	-9.15221
▁future	-9.15221
ified	-9.15226
▁words	-9.15273
▁hans	-9.1528
▁camp	-9.15406
▁republic	-9.15827
▁fruit	-9.15827
▁peter	-9.15866
▁poor	-9.16047
▁cost	-9.16396
▁literature	-9.16437
▁edge	-9.1645
▁fair	-9.16483
▁collection	-9.16497
▁months	-9.16525
▁require	-9.16543
▁independent	-9.16626
▁flo	-9.16803
▁iron	-9.17033
▁bridge	-9.17113
▁wait	-9.17113
▁saw	-9.17234
by	-9.1725
▁ja	-9.17257
▁inside	-9.1733
side	-9.17332
▁states	-9.17391
▁send	-9.17506
▁energy	-9.17668
pper	-9.17723
▁l	-9.17728
▁movie	-9.17859
▁science	-9.17861
▁meant	-9.17869
ever	-9.17952
▁appeared	-9.18225
▁media	-9.18283
having	-9.18511
▁officer	-9.18552
▁described	-9.18645
▁force	-9.18668
▁dr	-9.18716
▁solution	-9.18914
▁planned	-9.18917
▁saint	-9.18918
▁met	-9.18935
▁mill	-9.18965
▁dance	-9.19048
▁cri	-9.19059
▁worth	-9.19059
▁stra	-9.19084
ities	-9.19274
▁paris	-9.19492
▁wear	-9.19524
▁notice	-9.19529
▁remember	-9.19543
▁scene	-9.19543
▁avoid	-9.19544
▁sister	-9.19576
▁runs	-9.19884
▁trans	-9.20092
▁involved	-9.20176
▁female	-9.20176
▁internet	-9.20176
▁problems	-9.20228
tal	-9.20312
▁fa	-9.20354
▁attended	-9.20511
▁fast	-9.20515
▁forms	-9.20757
▁easily	-9.20813
let	-9.20897
▁late	-9.21006
▁offer	-9.21018
▁lock	-9.21065
▁fan	-9.21094
▁write	-9.21126
▁tea	-9.21183
▁visit	-9.213
hn	-9.21404
▁concert	-9.21454
▁cream	-9.21489
▁guest	-9.21527
gi	-9.21554
▁older	-9.21599
▁opened	-9.2165
▁generally	-9.21722
▁doubt	-9.22099
▁newspaper	-9.22099
▁writing	-9.22099
▁cor	-9.2239
▁fi	-9.22483
▁tax	-9.22567
▁direct	-9.22622
ov	-9.22662
▁spe	-9.22676
▁cook	-9.22733
▁dream	-9.22748
▁silver	-9.22757
▁flight	-9.22779
▁increase	-9.22897
▁rain	-9.2309
▁chi	-9.2311
▁farm	-9.23267
▁administration	-9.23402
▁driving	-9.23402
▁friedrich	-9.23402
▁twelve	-9.23402
▁morning	-9.23404
▁comp	-9.23409
▁countries	-9.23417
▁measure	-9.23464
▁price	-9.23473
▁significant	-9.23637
enburg	-9.24028
cht	-9.24059
▁application	-9.2406
▁festival	-9.2406
▁principle	-9.2406
▁content	-9.24062
▁italian	-9.24071
▁john	-9.24243
ward	-9.24333
▁changes	-9.24425
▁awarded	-9.24473
▁dam	-9.24678
▁herself	-9.24722
▁relationship	-9.24729
▁trees	-9.24799
▁foot	-9.24804
cient	-9.24823
▁kilometers	-9.24823
▁touch	-9.24823
▁receive	-9.24884
▁miss	-9.2499
▁quit	-9.25105
▁released	-9.25159
▁neighbor	-9.25238
▁professor	-9.25389
▁kept	-9.25389
▁treat	-9.25404
ug	-9.25836
▁exist	-9.25924
▁animal	-9.25941
val	-9.25964
▁har	-9.26043
▁agriculture	-9.2606
▁nowadays	-9.2606
▁included	-9.26077
tru	-9.26152
▁thereby	-9.26443
▁returned	-9.26559
▁leader	-9.26614
▁television	-9.26735
▁shot	-9.26737
▁medal	-9.26762
▁coach	-9.2683
▁sold	-9.2684
ley	-9.26848
con	-9.26953
uc	-9.27282
▁accident	-9.27416
log	-9.27457
▁fill	-9.27526
▁mer	-9.27564
▁fun	-9.27705
iz	-9.27741
▁switch	-9.28009
▁nevertheless	-9.28101
▁society	-9.28101
▁yesterday	-9.28101
▁coast	-9.28113
▁square	-9.28124
▁sport	-9.28144
▁preserved	-9.28193
ological	-9.28466
▁rule	-9.28497
▁app	-9.2862
ik	-9.2868
▁commercial	-9.2879
▁link	-9.28814
▁languages	-9.28815
▁airport	-9.28815
▁tro	-9.28851
▁press	-9.28949
▁personal	-9.2904
▁paper	-9.29042
▁supported	-9.29173
▁cable	-9.29355
▁novel	-9.2949
▁appearance	-9.29503
time	-9.29551
▁fu	-9.29647
▁shape	-9.29694
▁failed	-9.2975
▁wing	-9.30001
▁performed	-9.30127
▁cur	-9.30177
▁spread	-9.30184
▁volume	-9.30184
▁flat	-9.30198
▁starts	-9.30254
▁thank	-9.30291
▁wish	-9.30296
▁meeting	-9.3075
▁connected	-9.30805
▁grand	-9.3083
▁object	-9.30851
▁ring	-9.30858
▁circle	-9.30888
▁coffee	-9.30888
▁twice	-9.30888
▁football	-9.30894
▁contains	-9.31202
han	-9.3123
res	-9.31412
▁expert	-9.31597
▁college	-9.31597
▁smoke	-9.31598
▁shoot	-9.31637
▁occur	-9.31704
▁carry	-9.31833
▁tip	-9.3186
▁clearly	-9.31919
ative	-9.32003
▁houses	-9.32101
▁shaped	-9.32114
qui	-9.32122
▁pet	-9.32186
▁concept	-9.32312
▁escape	-9.32312
▁russian	-9.32449
▁ya	-9.32585
▁partner	-9.32641
▁windows	-9.32851
▁match	-9.3291
▁mor	-9.32954
▁municipal	-9.32978
eg	-9.3299
▁talent	-9.33032
▁making	-9.33033
▁display	-9.33039
▁event	-9.33055
▁eastern	-9.33077
▁fine	-9.33142
▁add	-9.33151
ham	-9.33166
▁recently	-9.33314
▁counter	-9.33331
▁karl	-9.33349
▁speaking	-9.33425
▁ended	-9.33427
▁shop	-9.33756
▁editor	-9.33756
▁knowledge	-9.33756
▁milk	-9.33756
▁noise	-9.33772
▁majority	-9.33808
▁winter	-9.33829
▁results	-9.33894
▁italy	-9.33918
istic	-9.34036
▁allow	-9.34105
▁col	-9.34136
▁y	-9.34174
▁fit	-9.34223
▁flows	-9.34256
▁electric	-9.34295
ren	-9.34343
▁reach	-9.34365
▁access	-9.34479
▁library	-9.34486
▁running	-9.34492
hausen	-9.34523
▁western	-9.34547
▁motor	-9.34549
▁events	-9.34604
▁wheel	-9.3461
▁friends	-9.3461
▁heard	-9.34651
▁owner	-9.34687
▁pri	-9.34752
▁reasons	-9.34912
▁fly	-9.351
▁meaning	-9.35123
ring	-9.35151
▁behavior	-9.35221
▁institute	-9.35221
▁choir	-9.35221
▁statement	-9.35443
▁rich	-9.35498
fe	-9.35559
out	-9.35641
ries	-9.35873
▁thanks	-9.35936
▁amount	-9.35962
▁procedure	-9.35962
▁committee	-9.35962
▁safe	-9.35972
▁kill	-9.36064
▁ban	-9.36111
▁mat	-9.36121
▁products	-9.36215
▁trip	-9.36219
▁broken	-9.36223
ek	-9.36263
▁comment	-9.36267
oc	-9.36384
▁arm	-9.36561
▁switzerland	-9.36708
▁opinion	-9.36708
▁quarter	-9.36708
▁straight	-9.36712
▁lawyer	-9.36716
▁complete	-9.36759
▁che	-9.36942
▁vehicle	-9.37062
▁health	-9.37082
stadt	-9.37129
▁dear	-9.37277
▁teams	-9.37336
▁stands	-9.3741
bel	-9.37411
▁beautiful	-9.3746
▁instrument	-9.3746
▁bishop	-9.3746
▁complain	-9.3746
▁election	-9.37476
▁sort	-9.3751
▁bern	-9.37604
▁weight	-9.37741
▁destroyed	-9.37913
▁hour	-9.38015
▁designed	-9.38155
▁row	-9.38208
▁cologne	-9.38217
▁london	-9.38218
▁video	-9.38218
▁management	-9.3829
▁sounds	-9.38345
▁musician	-9.38466
▁practice	-9.38473
▁arch	-9.38484
▁offers	-9.38542
▁weak	-9.38584
▁contain	-9.38598
▁character	-9.38615
▁signal	-9.38621
▁limited	-9.38907
▁asked	-9.38911
▁equal	-9.38981
▁baby	-9.39002
one	-9.39119
▁release	-9.39245
▁cases	-9.39581
▁separate	-9.39591
▁wor	-9.39673
▁article	-9.39751
▁highly	-9.39862
▁offered	-9.39951
▁starting	-9.40019
▁highest	-9.40053
▁below	-9.40073
▁america	-9.40138
▁pen	-9.40151
enberg	-9.40203
▁joined	-9.40246
▁source	-9.4025
▁sw	-9.4052
▁security	-9.40525
▁graduat	-9.40525
▁block	-9.40525
▁blind	-9.40526
▁medical	-9.40527
▁woman	-9.40629
▁bomb	-9.40641
ja	-9.40656
▁enter	-9.40679
▁bike	-9.40682
▁image	-9.40686
▁fat	-9.40811
cker	-9.40836
▁grow	-9.4092
▁writer	-9.40924
▁method	-9.41063
▁johann	-9.41111
mark	-9.41203
▁quality	-9.41306
▁increasing	-9.41307
▁summer	-9.41328
tel	-9.41373
over	-9.41392
▁tourist	-9.41451
▁burn	-9.41538
▁achieved	-9.41645
▁min	-9.41654
nne	-9.41777
▁weeks	-9.41879
▁picture	-9.41882
▁kar	-9.41898
old	-9.41908
▁imp	-9.41976
▁questions	-9.41976
▁ober	-9.42013
▁lose	-9.42082
▁screen	-9.42094
▁greek	-9.421
▁alternative	-9.42105
▁mine	-9.42379
called	-9.42519
▁par	-9.42536
▁removed	-9.42684
▁burg	-9.42868
▁absolute	-9.42887
▁prince	-9.42888
▁mouth	-9.42888
▁strasse	-9.42913
▁bread	-9.42929
▁exhibition	-9.4294
▁cal	-9.43005
▁songs	-9.43017
▁tail	-9.43048
▁parish	-9.43054
▁hill	-9.43183
▁damage	-9.43216
▁product	-9.43224
▁parliament	-9.43239
▁bag	-9.43293
work	-9.4331
▁championship	-9.43566
▁culture	-9.43688
▁hospital	-9.43688
▁reserve	-9.43688
▁adult	-9.43688
▁claim	-9.43719
▁exception	-9.43747
▁points	-9.43762
▁passed	-9.43822
▁tur	-9.43842
▁box	-9.43921
▁boat	-9.43946
▁might	-9.44501
▁prize	-9.44508
▁accept	-9.44525
▁ros	-9.44538
▁martin	-9.44545
▁neighbors	-9.44671
▁customer	-9.44778
▁normal	-9.44883
▁vehicles	-9.44922
▁fields	-9.45185
▁permanent	-9.45307
▁foreign	-9.45307
▁crown	-9.45307
▁royal	-9.4531
▁balance	-9.45328
▁super	-9.45333
▁explain	-9.45345
▁pra	-9.45446
▁continue	-9.45548
▁ages	-9.45684
▁rank	-9.45688
▁corner	-9.45736
▁der	-9.45963
▁costs	-9.45981
gan	-9.46079
▁euro	-9.4611
▁waste	-9.46113
▁heavy	-9.46127
▁typical	-9.46127
▁wilhelm	-9.46127
▁guitar	-9.46127
▁memory	-9.46127
▁percent	-9.46128
▁relatively	-9.46128
▁engine	-9.46153
▁successor	-9.46428
▁correct	-9.46432
▁sur	-9.46475
▁fur	-9.46481
▁moon	-9.46505
▁planet	-9.46588
pi	-9.46623
▁branch	-9.46758
▁wild	-9.46808
▁appointed	-9.46953
▁software	-9.46953
▁overall	-9.46959
ose	-9.46966
▁forget	-9.46967
▁piece	-9.47012
▁scar	-9.47069
▁records	-9.47107
▁evening	-9.47427
quite	-9.47441
▁fund	-9.47461
▁fle	-9.47531
▁spa	-9.47694
horn	-9.47749
▁activities	-9.47786
▁extensive	-9.47786
fer	-9.4782
▁background	-9.4782
▁wave	-9.47902
▁hell	-9.47909
▁pure	-9.47995
▁hol	-9.47998
▁grown	-9.48128
yre	-9.48255
▁mass	-9.48321
▁topic	-9.48433
von	-9.48436
art	-9.48459
▁consider	-9.48524
▁singer	-9.48536
▁lines	-9.48581
▁artist	-9.48615
▁audience	-9.48627
▁judge	-9.48627
▁frankfurt	-9.48628
▁broadcast	-9.48628
▁orient	-9.4863
▁thick	-9.4863
▁authorities	-9.48653
▁chance	-9.48668
▁perform	-9.48688
▁meet	-9.48767
▁subsequently	-9.48847
ches	-9.48895
▁united	-9.48951
▁austrian	-9.49084
▁significantly	-9.4917
▁referr	-9.49194
▁says	-9.49316
▁x	-9.49373
▁dry	-9.49383
chi	-9.4942
▁wo	-9.49457
▁communities	-9.49474
▁york	-9.49485
uck	-9.49677
▁fin	-9.49702
▁pictures	-9.49703
▁specialist	-9.49832
▁gi	-9.4989
▁camera	-9.49976
▁tradition	-9.50046
▁metal	-9.50062
▁gun	-9.50067
▁connect	-9.501
▁represented	-9.50153
▁mountains	-9.50325
▁account	-9.50329
▁institution	-9.50329
▁teeth	-9.5033
▁opposite	-9.50332
▁bor	-9.50337
▁missing	-9.50365
▁limit	-9.50413
sdorf	-9.5049
▁appear	-9.50538
▁colors	-9.50581
▁beat	-9.50602
▁regular	-9.50768
▁bro	-9.50843
▁meters	-9.50908
▁warm	-9.50929
▁char	-9.51167
▁defense	-9.51191
▁religious	-9.51191
▁pieces	-9.512
cke	-9.5137
▁ep	-9.51586
▁shown	-9.5164
▁africa	-9.51739
▁birds	-9.51772
for	-9.51954
▁user	-9.51967
▁jewish	-9.52061
▁landscape	-9.52061
▁opponent	-9.52061
▁situated	-9.52061
▁fresh	-9.52086
▁cake	-9.52158
▁rail	-9.52259
▁representative	-9.52286
▁window	-9.52303
aries	-9.52406
▁recognize	-9.52432
▁mayor	-9.52482
fi	-9.52513
▁male	-9.52523
hof	-9.52646
▁movies	-9.52667
▁rid	-9.52773
▁required	-9.52783
▁skin	-9.52784
▁trained	-9.5282
▁exchange	-9.52938
▁stuff	-9.52938
▁estate	-9.5294
▁orange	-9.5294
▁chair	-9.52948
▁sugar	-9.52951
▁sector	-9.52957
▁apartment	-9.52999
▁stretch	-9.53071
par	-9.5313
▁beach	-9.53139
stein	-9.53213
▁factory	-9.53232
▁previously	-9.53355
del	-9.53381
▁loud	-9.53448
▁films	-9.53457
rew	-9.53485
▁standing	-9.53613
▁financial	-9.53823
▁flag	-9.53827
▁push	-9.53892
▁flow	-9.53914
▁expect	-9.5393
▁reality	-9.53992
▁replaced	-9.5407
▁command	-9.54189
▁theory	-9.54201
▁spent	-9.54281
▁previous	-9.54293
▁serious	-9.54303
house	-9.54338
og	-9.546
▁emergency	-9.54716
▁advantage	-9.54716
▁stick	-9.54718
▁funny	-9.54724
▁hurt	-9.5475
▁fuel	-9.54807
▁stream	-9.54852
▁react	-9.54881
je	-9.54904
▁effects	-9.54943
cher	-9.55085
▁rate	-9.55119
▁bone	-9.55173
za	-9.55204
▁golden	-9.55244
light	-9.55269
▁ger	-9.55281
ban	-9.55295
mmer	-9.55311
▁bal	-9.55353
▁artificial	-9.55616
▁register	-9.55616
▁unknown	-9.55616
▁captain	-9.55617
▁interior	-9.55617
▁defend	-9.55617
▁weekend	-9.5562
▁importance	-9.55625
▁flu	-9.55714
graph	-9.5583
ino	-9.55957
▁describe	-9.5602
▁rat	-9.56189
▁speaker	-9.56232
▁saying	-9.56276
mat	-9.56438
▁broke	-9.56463
▁issue	-9.56514
▁exclusive	-9.56526
▁olympic	-9.56526
▁understood	-9.56526
▁complex	-9.56526
▁brand	-9.56527
▁everybody	-9.56531
definitely	-9.5655
▁chairman	-9.56562
▁winner	-9.5659
▁jan	-9.56649
▁practical	-9.56666
▁obviously	-9.56679
▁painter	-9.56803
▁student	-9.56952
▁van	-9.57002
▁listed	-9.57048
pel	-9.57104
▁tries	-9.5713
press	-9.57231
▁sit	-9.57383
▁bay	-9.57424
▁birth	-9.57439
▁august	-9.57443
▁conflict	-9.57443
▁effort	-9.57443
▁passenger	-9.57443
▁supply	-9.57443
▁graphic	-9.57444
▁shopping	-9.57444
▁sorry	-9.57445
▁desert	-9.57446
▁spring	-9.57474
▁fourth	-9.57893
▁pack	-9.57943
▁bare	-9.58001
▁ze	-9.58086
ification	-9.58198
▁indian	-9.58263
▁provided	-9.58275
▁commission	-9.58369
▁soccer	-9.58369
▁latter	-9.5837
▁spend	-9.58376
▁automatically	-9.5838
▁property	-9.58383
ition	-9.58407
▁latin	-9.58409
ker	-9.58411
▁industrial	-9.58413
ue	-9.58489
nic	-9.58527
▁reich	-9.5854
▁customs	-9.58578
▁rarely	-9.58715
▁schools	-9.58938
▁flowers	-9.58988
▁sons	-9.59067
▁pot	-9.59081
▁systems	-9.59171
▁reflect	-9.59303
▁applied	-9.59304
▁snow	-9.59304
▁swiss	-9.59307
▁wolf	-9.59333
▁zone	-9.59343
rge	-9.59344
kirch	-9.5936
ctor	-9.59394
▁ride	-9.59479
▁conditions	-9.59567
▁climb	-9.59571
▁measures	-9.59583
▁mentioned	-9.59668
▁j	-9.59718
ible	-9.59735
▁wouldnt	-9.59759
▁meat	-9.59779
▁hero	-9.59795
▁resident	-9.59863
ette	-9.59968
▁agricultural	-9.60247
▁heinrich	-9.60247
▁shock	-9.60247
▁slightly	-9.60247
▁composition	-9.60252
▁drug	-9.60263
▁meantime	-9.60271
▁stock	-9.60318
▁pur	-9.60333
▁needed	-9.60374
▁pol	-9.60409
▁gear	-9.60432
▁diet	-9.60713
▁pit	-9.60755
▁discovered	-9.60764
though	-9.60815
▁acting	-9.60989
▁respect	-9.61163
▁specific	-9.61196
▁disease	-9.61199
▁equipped	-9.61199
▁inhabitants	-9.61199
▁rhine	-9.61199
▁eleven	-9.61199
▁click	-9.612
▁piano	-9.612
▁earlier	-9.61206
▁visible	-9.6124
▁killed	-9.61243
▁brake	-9.61276
▁remain	-9.61355
▁digital	-9.61392
▁finish	-9.61414
ral	-9.61578
port	-9.61745
com	-9.61758
▁march	-9.61962
▁numbers	-9.6199
▁shi	-9.62031
▁evidence	-9.62161
▁enjoy	-9.62161
▁kitchen	-9.62161
▁license	-9.62161
▁smell	-9.62161
▁taught	-9.62168
▁spanish	-9.62171
▁protestant	-9.62171
▁package	-9.62192
▁forces	-9.62197
▁drum	-9.62298
▁chain	-9.62364
our	-9.62628
▁joke	-9.62658
ability	-9.62666
▁smaller	-9.62784
wald	-9.62811
▁nu	-9.62901
▁appears	-9.62968
▁collect	-9.62968
ang	-9.62975
▁bur	-9.63048
lon	-9.63053
▁admit	-9.63099
▁contrast	-9.63132
▁perfect	-9.63132
▁somewhere	-9.63132
▁ive	-9.63137
▁favorite	-9.63142
▁drop	-9.63174
ography	-9.63178
▁china	-9.63219
▁represent	-9.63219
▁fee	-9.63324
hen	-9.63342
▁producer	-9.63393
▁secondary	-9.63404
phon	-9.63508
ung	-9.63511
chen	-9.63585
▁regularly	-9.63611
▁quick	-9.63692
▁shouldnt	-9.6379
▁qua	-9.63828
▁element	-9.63884
▁era	-9.64059
▁restaurant	-9.64112
▁characteristic	-9.64124
▁headquarters	-9.64135
▁communication	-9.64137
▁sing	-9.64167
▁max	-9.64284
▁correspond	-9.64429
▁attract	-9.64473
▁machines	-9.64527
vent	-9.64558
▁bla	-9.64624
▁symbol	-9.64662
▁loss	-9.64724
▁increased	-9.64878
▁reform	-9.65062
▁tool	-9.6507
▁artists	-9.65083
▁examination	-9.65102
▁length	-9.65102
▁empty	-9.65102
▁england	-9.65102
▁insurance	-9.65102
▁draw	-9.65104
▁stopped	-9.65108
▁cloud	-9.65111
▁frank	-9.65121
▁forward	-9.65164
▁skill	-9.65186
▁auto	-9.65258
▁recommend	-9.65324
▁elements	-9.65334
▁aim	-9.65372
▁stem	-9.65525
▁manager	-9.65878
▁dare	-9.66024
▁citizens	-9.66043
▁mal	-9.66048
tin	-9.6607
▁month	-9.66096
▁experiment	-9.66102
▁afraid	-9.66102
▁announced	-9.66102
▁conference	-9.66102
▁tournament	-9.66102
▁sweet	-9.66103
▁speech	-9.66104
▁acid	-9.66171
▁strip	-9.66233
▁trick	-9.66293
▁whatever	-9.6636
ular	-9.66405
▁scale	-9.6657
▁ideal	-9.66615
▁recognized	-9.66683
▁prove	-9.6671
▁opening	-9.66831
▁photo	-9.66865
▁gone	-9.66912
▁rot	-9.67027
▁mis	-9.67061
▁surrounded	-9.67112
▁surrounding	-9.67112
▁narrow	-9.67112
▁troops	-9.67114
▁discussion	-9.67139
▁sight	-9.6717
▁happens	-9.67195
▁players	-9.67197
▁elected	-9.67287
▁frequently	-9.67287
▁championships	-9.67298
▁compared	-9.67301
▁berg	-9.67334
▁maria	-9.67355
dorf	-9.67379
▁layer	-9.67407
▁joint	-9.67423
▁sha	-9.67442
▁traditional	-9.67448
▁plane	-9.67489
▁op	-9.67566
▁daughters	-9.67643
▁und	-9.6777
▁christ	-9.67863
▁nut	-9.67919
▁primar	-9.67967
▁severe	-9.68122
▁michael	-9.68133
▁orchestra	-9.68133
▁southeast	-9.68133
▁generation	-9.68133
▁promise	-9.68135
▁tre	-9.68136
▁lessons	-9.68141
▁staff	-9.682
▁saxony	-9.68379
▁sail	-9.68398
▁composer	-9.68511
ire	-9.68551
bility	-9.68565
▁luck	-9.68583
▁com	-9.68746
hu	-9.68871
▁determined	-9.68895
▁services	-9.68911
▁academy	-9.69164
▁criticism	-9.69164
▁request	-9.69164
▁edition	-9.69167
▁stories	-9.69172
▁prefer	-9.69192
▁bright	-9.69193
▁visitors	-9.69193
▁mission	-9.69319
▁visited	-9.69382
▁electro	-9.69401
▁concern	-9.69422
▁pig	-9.69493
▁ships	-9.69809
▁et	-9.69957
▁including	-9.70205
▁repair	-9.70205
▁adapt	-9.70206
▁chamber	-9.70206
▁brief	-9.70206
▁daily	-9.70222
▁message	-9.70236
ath	-9.70239
▁sitting	-9.70251
▁learned	-9.70278
▁reaction	-9.70318
▁soil	-9.7045
▁bell	-9.70494
▁spin	-9.70561
▁neck	-9.70574
zer	-9.70674
▁lau	-9.70782
▁legs	-9.70945
▁rose	-9.7095
▁feeling	-9.70954
don	-9.71039
ft	-9.7104
▁ray	-9.71083
▁classic	-9.71168
▁mode	-9.71178
▁flying	-9.71187
▁distribution	-9.71258
▁wellknown	-9.71258
▁flash	-9.71258
▁eggs	-9.71284
▁added	-9.71348
▁thin	-9.71348
fully	-9.71414
tten	-9.7155
▁disappeared	-9.71561
▁finds	-9.71564
acti	-9.71725
▁feed	-9.71776
▁stars	-9.718
▁ahead	-9.72033
ates	-9.72129
▁busy	-9.72216
▁plate	-9.72297
▁concrete	-9.72322
▁universities	-9.72322
▁smart	-9.72323
▁storm	-9.72329
▁ticket	-9.72341
▁respective	-9.72363
▁spit	-9.72463
▁larger	-9.7249
▁shell	-9.7257
▁presented	-9.72626
▁mess	-9.72725
▁recent	-9.72978
ib	-9.72996
▁showed	-9.73063
▁express	-9.73323
ita	-9.73394
▁stomach	-9.73397
▁knew	-9.73397
▁knock	-9.73397
▁chapel	-9.73412
▁engines	-9.7345
▁poem	-9.73472
▁hole	-9.73486
▁waiting	-9.73496
▁device	-9.73565
▁minute	-9.73569
▁anne	-9.73586
▁younger	-9.73637
▁issues	-9.74009
▁types	-9.74282
▁plans	-9.74347
lor	-9.74353
▁marked	-9.74375
▁upon	-9.7443
▁schu	-9.74448
▁choice	-9.74484
▁employed	-9.74484
▁myself	-9.74484
▁excuse	-9.74484
▁basis	-9.74491
▁compete	-9.74513
▁operating	-9.74518
▁organized	-9.74538
▁option	-9.74582
▁carrier	-9.74632
▁exists	-9.74716
▁operated	-9.74877
▁solo	-9.75156
car	-9.75181
cal	-9.75319
▁recommended	-9.75337
▁nei	-9.75411
▁bio	-9.75435
▁criminal	-9.75583
▁leaf	-9.75584
▁copy	-9.75589
▁detect	-9.75592
▁occasionally	-9.75613
lessly	-9.75631
▁guard	-9.75651
▁girl	-9.75915
▁affected	-9.7596
▁sales	-9.76088
▁apple	-9.7611
▁clubs	-9.7611
▁islands	-9.76142
▁agree	-9.76144
ple	-9.76448
ike	-9.76478
▁del	-9.76583
▁activity	-9.76694
▁dialect	-9.76694
▁mail	-9.76801
▁load	-9.76826
▁agent	-9.76946
ria	-9.76957
▁journalist	-9.7719
▁constant	-9.7741
▁mixed	-9.77455
mate	-9.77478
▁fingers	-9.77553
▁falls	-9.7761
isch	-9.77806
▁cathedral	-9.77818
▁kindergarten	-9.77818
▁biggest	-9.77818
▁ocean	-9.77818
▁brothers	-9.77967
▁label	-9.77975
▁brick	-9.78034
▁queen	-9.7806
gel	-9.78078
▁employees	-9.7814
▁bird	-9.78196
▁sources	-9.78219
ku	-9.78358
▁baden	-9.78572
▁web	-9.78704
▁salt	-9.78799
▁frame	-9.78946
▁politics	-9.78954
▁positive	-9.78955
▁trust	-9.78955
▁okay	-9.78955
▁robot	-9.78957
▁laugh	-9.78958
▁lord	-9.78963
▁childhood	-9.78969
▁robert	-9.7901
▁crime	-9.79012
▁container	-9.7902
▁manufacturer	-9.79022
▁steam	-9.79047
▁throughout	-9.79073
▁rare	-9.79073
bar	-9.79088
▁minor	-9.79135
▁pool	-9.79147
▁hotel	-9.79168
▁georg	-9.79235
▁cast	-9.7929
▁eva	-9.79311
▁ready	-9.79425
▁reading	-9.7945
▁mix	-9.79468
▁recorded	-9.7956
▁status	-9.7981
▁singing	-9.79847
▁occurs	-9.79906
▁architect	-9.80083
▁candidate	-9.80103
▁economy	-9.80103
▁leaving	-9.80103
▁meanwhile	-9.80103
▁religion	-9.80103
▁studio	-9.80103
▁empire	-9.80103
▁patient	-9.80103
▁filter	-9.80104
▁liquid	-9.80104
▁urban	-9.80104
▁policy	-9.80104
▁tongue	-9.80104
▁teaching	-9.80105
▁medium	-9.80106
▁fought	-9.80109
▁dig	-9.80122
▁functions	-9.80124
▁characterized	-9.80133
▁blow	-9.80142
▁zero	-9.80175
▁arranged	-9.80247
▁consequences	-9.80484
▁gar	-9.80694
▁peace	-9.80843
▁placed	-9.80876
▁girls	-9.80917
▁differently	-9.80922
▁conduct	-9.81081
▁flower	-9.81096
▁expensive	-9.81266
▁medicine	-9.81266
▁pattern	-9.81266
▁franz	-9.81266
▁decade	-9.81266
▁japanese	-9.81267
▁inspir	-9.81274
▁warning	-9.81295
▁cooking	-9.81303
top	-9.8131
▁dedicated	-9.81341
▁gate	-9.81421
▁million	-9.81446
▁nose	-9.81448
▁noble	-9.81495
▁factor	-9.81534
▁artistic	-9.81599
▁boss	-9.816
illa	-9.81623
ball	-9.81641
▁handle	-9.81686
▁refer	-9.81789
▁originate	-9.81818
▁eating	-9.81856
▁suffered	-9.81938
▁tie	-9.82013
▁map	-9.82181
▁expected	-9.82294
▁contribut	-9.82346
▁investigat	-9.82347
▁tram	-9.82416
▁colleague	-9.82443
▁facilities	-9.82443
▁stuttgart	-9.82443
▁chief	-9.82444
▁actress	-9.82444
▁essential	-9.82445
▁average	-9.82445
▁bought	-9.82451
▁creative	-9.82495
▁guide	-9.82507
ai	-9.8251
▁root	-9.82578
▁shut	-9.82607
▁inform	-9.82665
ula	-9.8268
nny	-9.82713
▁determine	-9.82857
can	-9.83016
▁kra	-9.83095
▁prepared	-9.83212
▁chemical	-9.83633
▁destination	-9.83633
▁global	-9.83633
▁residence	-9.83633
▁substance	-9.83633
▁dispute	-9.83633
▁pretty	-9.83634
▁profit	-9.83634
▁juice	-9.83688
j	-9.83698
▁fre	-9.83739
▁delete	-9.83787
tsch	-9.83789
▁sin	-9.83927
▁trace	-9.83937
▁promoted	-9.84008
▁za	-9.84042
▁stepp	-9.84078
▁rejected	-9.84108
▁mont	-9.84111
▁kl	-9.84131
▁pair	-9.84177
▁seriously	-9.84202
▁pop	-9.84296
▁mon	-9.8436
▁growing	-9.84665
▁equipment	-9.84838
▁everywhere	-9.84838
▁satellite	-9.84838
▁territory	-9.84838
▁trouble	-9.84838
▁bronze	-9.84838
▁shirt	-9.84839
▁appeal	-9.8484
▁reveal	-9.8484
▁cheap	-9.84843
▁stress	-9.84843
▁bill	-9.84849
▁breath	-9.84857
▁borders	-9.8487
▁polish	-9.84875
▁easier	-9.84895
▁kids	-9.84895
▁useful	-9.85013
▁succeeded	-9.85186
▁join	-9.8525
▁rome	-9.8532
▁harm	-9.85422
▁spelling	-9.85459
▁sto	-9.85602
▁careful	-9.85693
see	-9.85718
kin	-9.85735
▁bavaria	-9.85736
▁nord	-9.85919
▁browser	-9.86057
▁depict	-9.86057
▁oclock	-9.86057
▁nucle	-9.86058
▁stadium	-9.86058
▁tun	-9.86093
▁governor	-9.86104
▁blame	-9.86105
▁washing	-9.86139
▁hang	-9.86199
gar	-9.86243
▁hat	-9.86317
▁gene	-9.86325
▁presentation	-9.8643
her	-9.86436
▁duke	-9.86448
cha	-9.8649
▁gained	-9.86564
etic	-9.86605
▁walking	-9.86703
▁mur	-9.86747
▁rod	-9.86892
▁gro	-9.8693
▁vol	-9.86979
▁lecture	-9.86995
▁fried	-9.87019
▁appropriate	-9.87292
▁leipzig	-9.87292
▁northeast	-9.87292
▁stupid	-9.87292
▁joseph	-9.87292
▁baroque	-9.87292
▁translated	-9.87293
▁target	-9.87293
▁talking	-9.87322
▁democratic	-9.87323
▁agreement	-9.87339
▁gray	-9.8734
▁raised	-9.87443
▁assumed	-9.87448
▁steel	-9.87522
▁regarding	-9.87608
ben	-9.87616
room	-9.87636
▁grows	-9.87695
▁aid	-9.8776
▁participated	-9.87854
mel	-9.87891
▁fri	-9.87985
▁detail	-9.88133
▁remaining	-9.88162
▁yo	-9.88168
▁den	-9.88192
▁slow	-9.88194
▁gau	-9.88305
▁pipe	-9.88324
▁suggest	-9.88445
▁prison	-9.885
▁husband	-9.88542
▁maintenance	-9.88542
▁sponsor	-9.88542
▁chinese	-9.88542
▁scream	-9.88542
▁chosen	-9.88542
▁northwest	-9.88542
▁alarm	-9.88549
▁photograph	-9.88551
▁opera	-9.88556
▁huge	-9.88574
▁electricity	-9.88616
rum	-9.88647
▁owned	-9.88728
▁hello	-9.88805
▁kiss	-9.89001
head	-9.89149
▁bun	-9.89158
▁bass	-9.8917
▁condition	-9.89452
tag	-9.89507
bed	-9.89606
▁devices	-9.8961
▁vote	-9.89635
▁aspect	-9.89808
▁benefit	-9.89808
▁perspective	-9.89808
▁smooth	-9.89808
▁volunteer	-9.89808
▁entered	-9.89808
▁strike	-9.89813
▁planning	-9.89814
▁internal	-9.89815
▁gift	-9.89824
▁dress	-9.8983
▁strange	-9.89837
▁literar	-9.89841
▁tourism	-9.89882
▁sum	-9.89934
▁suddenly	-9.89989
▁prime	-9.90111
▁surprised	-9.90142
▁core	-9.90235
▁ram	-9.90287
▁extended	-9.90294
ella	-9.90463
▁sciences	-9.90688
▁explained	-9.91029
▁connections	-9.91058
▁demonstrat	-9.9109
▁complicated	-9.9109
▁contemporary	-9.9109
▁cycle	-9.9109
▁climate	-9.9109
▁desired	-9.9109
▁southwest	-9.9109
▁tunnel	-9.9109
▁soviet	-9.9109
▁truth	-9.9109
▁split	-9.91091
▁freight	-9.91094
▁keyboard	-9.91102
▁sole	-9.91112
▁native	-9.9112
ome	-9.91131
▁praise	-9.91157
▁alone	-9.91237
▁switched	-9.91262
▁founder	-9.91267
▁lind	-9.91596
▁destroy	-9.91609
▁poet	-9.91778
▁formation	-9.91868
▁ser	-9.91883
▁pal	-9.91891
▁exact	-9.91967
slav	-9.91971
▁trainer	-9.92106
tta	-9.92205
▁except	-9.92292
here	-9.92312
▁otto	-9.92355
é	-9.92389
▁breakfast	-9.92389
▁context	-9.92389
▁philosophy	-9.92389
▁thomas	-9.92389
▁knight	-9.92389
▁folk	-9.9239
▁proceed	-9.92391
▁william	-9.92392
▁roast	-9.92401
▁consum	-9.92403
▁alright	-9.92432
▁multi	-9.92433
▁environment	-9.92458
▁analysis	-9.9248
▁expression	-9.92505
▁script	-9.92517
▁authority	-9.9256
▁pain	-9.92569
tory	-9.92639
▁mad	-9.92724
▁earn	-9.92833
nja	-9.92979
▁clo	-9.93035
▁spell	-9.93192
▁ms	-9.932
▁parties	-9.93256
▁spoke	-9.93385
▁rear	-9.93563
▁farmer	-9.93615
yn	-9.9368
▁favor	-9.9369
▁bottom	-9.93704
▁california	-9.93704
▁campaign	-9.93704
▁victim	-9.93704
▁valuable	-9.93705
▁eventually	-9.93705
▁exhaust	-9.93705
▁drain	-9.93706
▁dough	-9.93708
▁tank	-9.93713
▁vice	-9.93731
▁drill	-9.93732
▁wonder	-9.93742
▁rubb	-9.93784
▁introduced	-9.93849
▁myth	-9.93873
atic	-9.93877
▁prepare	-9.93975
▁kur	-9.93975
▁gal	-9.94027
▁settled	-9.9412
▁bin	-9.94161
▁emerg	-9.94328
▁kick	-9.94348
▁classical	-9.94382
▁reduce	-9.94532
board	-9.94779
▁bake	-9.94788
▁corn	-9.9491
▁danger	-9.95024
▁ludwig	-9.95038
▁battery	-9.95038
▁error	-9.95038
▁hockey	-9.95038
▁chicken	-9.95038
▁unlike	-9.95038
▁housing	-9.95041
▁jul	-9.95069
stone	-9.95094
▁associated	-9.95109
▁loose	-9.95129
▁lying	-9.9527
▁installed	-9.95275
▁expanded	-9.9537
▁composed	-9.95486
▁till	-9.95492
▁recordings	-9.95542
▁residents	-9.95585
▁characters	-9.95632
▁apply	-9.95909
▁representatives	-9.96052
▁rise	-9.96192
▁weapons	-9.96246
endorf	-9.96261
▁covers	-9.96277
▁suffer	-9.96297
▁shooting	-9.96313
▁interview	-9.96389
▁negative	-9.96389
▁possibility	-9.96389
▁sufficient	-9.96389
▁impact	-9.96389
▁hidden	-9.96389
▁reference	-9.96389
▁audio	-9.9639
▁address	-9.9639
▁christmas	-9.96392
▁critical	-9.96392
▁partially	-9.96392
▁strict	-9.96392
▁citizen	-9.9647
▁disc	-9.96587
▁attached	-9.96662
▁gre	-9.96697
▁matches	-9.96773
▁methods	-9.96814
ane	-9.96827
▁begins	-9.96838
▁alt	-9.96879
▁alive	-9.96944
▁creat	-9.97145
▁soldiers	-9.97196
▁tim	-9.97405
▁drama	-9.97725
▁crazy	-9.97759
▁somewhat	-9.97759
▁stroke	-9.97759
▁giving	-9.97759
▁canton	-9.9776
▁dutch	-9.9776
▁diving	-9.97761
▁agency	-9.97761
▁racing	-9.97766
▁aircraft	-9.97777
▁finance	-9.97796
▁rural	-9.97802
▁valid	-9.97812
▁online	-9.97954
▁magic	-9.97994
▁none	-9.98004
▁laid	-9.98005
▁photos	-9.98088
▁egg	-9.98102
▁chess	-9.98133
▁rust	-9.98141
har	-9.98288
▁fully	-9.98312
▁discover	-9.98337
▁mel	-9.98412
▁hau	-9.98422
▁thinking	-9.98644
▁witt	-9.98776
▁hart	-9.98933
▁burned	-9.99137
▁australia	-9.99148
▁comparison	-9.99148
▁descend	-9.99148
▁hungry	-9.99148
▁locomotive	-9.99148
▁potential	-9.99148
▁responsibility	-9.99148
▁revolution	-9.99148
▁approved	-9.99148
▁assistant	-9.99148
▁channel	-9.99148
▁heavily	-9.99148
▁beyond	-9.99148
▁pilot	-9.99149
▁related	-9.99149
▁defeat	-9.9915
▁possession	-9.99151
▁felt	-9.99152
▁launch	-9.99153
▁failure	-9.99162
▁unclear	-9.99195
▁safety	-9.99196
▁massive	-9.99209
▁knee	-9.99237
▁clothes	-9.99303
▁converted	-9.99351
▁helped	-9.99489
berries	-9.99579
▁india	-9.99592
▁details	-9.99605
▁cry	-9.99672
▁catch	-9.99702
▁holidays	-10.001
▁bud	-10.0029
▁publish	-10.0047
▁occasion	-10.0052
▁eli	-10.0055
▁bundesliga	-10.0056
▁challenge	-10.0056
▁oblig	-10.0056
▁advice	-10.0056
▁component	-10.0056
▁emperor	-10.0056
▁imperial	-10.0056
▁applies	-10.0056
zzle	-10.0056
▁gym	-10.0056
▁forgotten	-10.0057
▁advertisement	-10.0058
▁donation	-10.0058
▁broad	-10.006
▁stuck	-10.0064
▁burst	-10.0072
rove	-10.0073
▁derived	-10.008
▁jean	-10.008
▁arrived	-10.0093
▁carbon	-10.0107
▁participants	-10.0115
▁maintain	-10.012
▁conductor	-10.0121
▁sell	-10.0122
▁sent	-10.0122
▁commander	-10.014
▁lion	-10.0145
▁divers	-10.0155
▁actual	-10.0156
▁constitution	-10.0159
▁participate	-10.016
▁mole	-10.0167
▁swed	-10.0171
▁tape	-10.0178
▁historic	-10.0186
▁holy	-10.019
▁accepted	-10.0193
▁statu	-10.0197
▁academic	-10.0198
▁occupied	-10.0198
▁regulation	-10.0198
▁review	-10.0198
▁sweat	-10.0199
▁cheese	-10.0199
▁resistance	-10.0199
▁transform	-10.0199
▁shift	-10.02
▁caught	-10.02
▁transferred	-10.02
▁comfortable	-10.02
▁corps	-10.0201
▁architecture	-10.0201
▁predominantly	-10.0206
▁decide	-10.0215
▁polar	-10.0216
▁reduced	-10.0253
▁indicate	-10.0293
ah	-10.0301
▁hof	-10.0308
▁ruler	-10.0318
▁pin	-10.0321
▁exhibit	-10.0334
▁disco	-10.034
▁interesting	-10.0341
▁relevant	-10.0343
▁tissue	-10.0343
▁crowd	-10.0344
▁proof	-10.0344
▁shoes	-10.0344
▁remind	-10.0344
▁legend	-10.0345
▁transition	-10.0345
▁murder	-10.0346
▁grab	-10.037
hagen	-10.0371
▁told	-10.0378
▁brain	-10.0381
▁colored	-10.0389
▁cleaning	-10.0395
▁engineering	-10.0403
▁attend	-10.0415
▁nest	-10.0428
lingen	-10.0433
▁mag	-10.0434
quet	-10.0439
▁radi	-10.0459
ana	-10.0476
▁asteroid	-10.049
▁collapse	-10.049
▁families	-10.049
▁fundamental	-10.049
▁gabriel	-10.049
▁truck	-10.0491
▁fourteen	-10.0491
▁transfer	-10.0491
▁electronic	-10.0492
▁relativ	-10.0493
▁alex	-10.0493
▁familiar	-10.0497
▁priest	-10.0501
▁pat	-10.0503
▁wald	-10.0508
▁bavarian	-10.0529
▁rent	-10.0545
▁socialist	-10.0546
▁grass	-10.0564
▁pitch	-10.0564
▁herb	-10.0581
▁que	-10.059
▁trail	-10.0607
▁westphalia	-10.0615
enbach	-10.0622
▁entirely	-10.0628
▁initiative	-10.064
▁journey	-10.064
▁progress	-10.064
▁silence	-10.064
▁variety	-10.064
▁precise	-10.064
▁april	-10.064
▁witness	-10.064
▁intended	-10.064
▁rhein	-10.064
▁adjust	-10.064
▁flood	-10.064
▁sick	-10.0662
vin	-10.0665
▁hide	-10.0668
▁finger	-10.0682
▁grain	-10.0686
day	-10.0691
hood	-10.0694
▁survive	-10.0695
▁constructed	-10.0697
▁correctly	-10.0717
▁stable	-10.0721
ani	-10.0735
▁faster	-10.0736
zo	-10.074
▁trial	-10.0748
▁operate	-10.0751
▁wal	-10.0752
▁survived	-10.0761
form	-10.0772
▁dub	-10.0781
▁grandfather	-10.0791
▁interrupt	-10.0791
▁ministry	-10.0791
▁choose	-10.0791
▁yeah	-10.0791
▁quiet	-10.0791
▁screw	-10.0791
▁storage	-10.0791
▁annual	-10.0791
▁repeat	-10.0792
▁annoy	-10.0792
▁justice	-10.0793
▁sunday	-10.0793
▁jam	-10.0794
▁dangerous	-10.0795
▁publications	-10.0795
▁underground	-10.0797
▁brun	-10.0798
▁growth	-10.0802
▁successfully	-10.0804
▁workers	-10.0805
▁bau	-10.081
▁lamp	-10.0822
▁branches	-10.0827
▁reported	-10.0843
▁rice	-10.0845
▁const	-10.0849
▁worse	-10.0859
ttle	-10.0863
▁neo	-10.087
war	-10.0875
off	-10.0877
▁cow	-10.0881
▁signed	-10.0881
▁accordingly	-10.0882
▁anton	-10.0907
▁strength	-10.0913
▁calendar	-10.0945
▁chocolate	-10.0945
▁extension	-10.0945
▁vegetable	-10.0945
▁dimension	-10.0945
▁kingdom	-10.0945
▁decline	-10.0945
▁sauce	-10.0945
▁silent	-10.0945
▁moving	-10.0945
▁physical	-10.0946
▁tonight	-10.0946
▁instance	-10.0946
▁freiburg	-10.0946
▁bicycle	-10.0946
▁genre	-10.0946
▁pond	-10.0947
▁accessible	-10.0947
▁investment	-10.0947
▁intention	-10.0949
▁tight	-10.0949
▁peak	-10.0952
▁threaten	-10.0953
▁fear	-10.0964
▁mit	-10.0965
▁impression	-10.0971
▁zi	-10.0972
▁crew	-10.0973
▁lang	-10.0975
▁directed	-10.0976
ably	-10.0999
▁bonn	-10.1002
▁george	-10.1017
▁publisher	-10.1026
▁emerged	-10.1036
▁formula	-10.1039
▁server	-10.1045
▁processes	-10.1046
▁ordered	-10.1052
▁cro	-10.1058
ux	-10.106
▁hop	-10.1091
▁cord	-10.1097
▁relation	-10.11
▁alcohol	-10.1101
▁brigade	-10.1101
▁confused	-10.1101
▁conversation	-10.1101
▁cooperation	-10.1101
▁recognition	-10.1101
▁enemy	-10.1101
▁remote	-10.1101
▁translation	-10.1101
▁affair	-10.1101
▁changing	-10.1101
▁sixteen	-10.1102
haps	-10.1105
▁manual	-10.1105
▁fifth	-10.1107
▁magnetic	-10.1108
▁approximately	-10.1108
▁contribution	-10.1114
▁fever	-10.1118
▁toilet	-10.1123
▁powerful	-10.1128
▁spoken	-10.114
▁grey	-10.1147
▁produce	-10.1167
▁belly	-10.1174
ische	-10.1185
▁maintained	-10.1188
▁protected	-10.1191
▁sheet	-10.1198
▁wie	-10.1203
▁zu	-10.1205
▁separated	-10.1205
▁hack	-10.1227
▁achieve	-10.1228
back	-10.1248
▁calculate	-10.126
▁controversial	-10.126
▁diocese	-10.126
▁identity	-10.126
▁simultaneously	-10.126
▁jazz	-10.126
▁drunk	-10.126
▁properties	-10.126
▁christoph	-10.126
▁column	-10.126
▁stood	-10.126
▁wedding	-10.126
▁honest	-10.126
▁requirements	-10.1261
▁wealth	-10.1261
▁alongside	-10.1264
▁politically	-10.1266
▁assembly	-10.1269
ily	-10.1278
▁bull	-10.1289
▁processing	-10.1296
▁manner	-10.1299
▁strongly	-10.13
▁pastor	-10.1314
▁normally	-10.1344
▁hub	-10.1356
rald	-10.1366
▁settle	-10.1371
▁promote	-10.1371
▁pai	-10.1379
▁subsequent	-10.1379
▁hind	-10.138
▁saxon	-10.1382
▁hydro	-10.1405
▁differ	-10.1419
▁episode	-10.1421
▁resources	-10.1421
▁dresden	-10.1421
▁profile	-10.1421
▁swimming	-10.1421
▁labor	-10.1421
▁tubingen	-10.1422
▁forgot	-10.1422
▁klaus	-10.1422
▁bremen	-10.1426
▁israel	-10.1426
▁walter	-10.1427
▁richard	-10.1428
▁cancer	-10.1428
▁lung	-10.1434
▁whom	-10.1435
▁prussian	-10.1436
▁curve	-10.1436
▁highway	-10.1438
▁defined	-10.1443
▁spain	-10.1444
▁breed	-10.1452
▁obtained	-10.1466
▁fred	-10.1471
haus	-10.1488
▁chest	-10.149
ura	-10.15
meter	-10.1501
▁din	-10.1506
mmy	-10.1508
▁mary	-10.1515
▁corresponding	-10.1532
▁hesse	-10.1548
▁bat	-10.1579
▁assigned	-10.1585
▁conclusion	-10.1585
▁decisive	-10.1585
▁suspect	-10.1585
▁technique	-10.1585
▁amazing	-10.1585
▁relax	-10.1585
▁freedom	-10.1585
▁inherit	-10.1586
▁mold	-10.1591
▁sacr	-10.1597
▁realized	-10.16
▁experienced	-10.1601
▁lens	-10.1602
▁sieg	-10.1617
▁shower	-10.1633
▁donate	-10.1655
post	-10.1669
▁engineer	-10.167
▁closely	-10.1702
▁stove	-10.1712
▁micro	-10.172
▁russia	-10.172
▁surviv	-10.1724
fall	-10.173
▁wil	-10.1735
▁lip	-10.1738
jo	-10.1747
▁circula	-10.1752
▁description	-10.1752
▁distributed	-10.1752
▁oxygen	-10.1752
▁platform	-10.1752
▁predecessor	-10.1752
▁supplies	-10.1752
▁virtual	-10.1752
▁czech	-10.1752
▁meadow	-10.1752
▁sharp	-10.1752
▁crack	-10.1752
▁david	-10.1752
▁barrel	-10.1752
▁advise	-10.1752
▁appointment	-10.1752
tial	-10.1753
▁income	-10.1755
▁relief	-10.1757
▁loop	-10.177
▁villa	-10.1772
▁adopted	-10.1776
▁electrical	-10.1786
▁chor	-10.1788
fish	-10.1788
▁discussed	-10.1788
▁organic	-10.1804
▁chip	-10.1806
▁meter	-10.1829
▁cam	-10.1831
rious	-10.1862
ju	-10.1903
▁raw	-10.1905
▁kre	-10.191
▁environmental	-10.1912
▁refu	-10.1912
▁spirit	-10.1921
▁dusseldorf	-10.1921
▁facility	-10.1921
▁incorrect	-10.1921
▁instruction	-10.1921
▁reception	-10.1921
▁rhythm	-10.1921
▁zurich	-10.1921
▁junior	-10.1921
▁resign	-10.1921
▁deserve	-10.1921
▁faith	-10.1921
▁unique	-10.1921
▁crystal	-10.1922
▁konig	-10.1922
▁phase	-10.1922
▁ernst	-10.1922
▁sky	-10.1922
▁brandenburg	-10.1923
▁debt	-10.1924
▁pedal	-10.1925
▁poetry	-10.1927
▁exam	-10.1931
▁pap	-10.1934
▁sar	-10.1938
▁craft	-10.1946
▁acquired	-10.1946
▁bow	-10.1947
▁existed	-10.1948
▁gross	-10.1952
▁schon	-10.1961
▁dude	-10.1965
▁constitutional	-10.1969
▁painted	-10.1982
▁proven	-10.1984
▁independently	-10.204
▁proper	-10.2059
▁alexander	-10.2094
▁combination	-10.2094
▁gymnasium	-10.2094
▁plastic	-10.2094
▁fridge	-10.2094
▁trigger	-10.2094
▁idiot	-10.2094
▁gothic	-10.2094
▁committed	-10.2096
▁stein	-10.2097
▁tube	-10.2099
▁dan	-10.21
▁theatre	-10.21
▁bite	-10.2101
▁logic	-10.2101
▁pump	-10.2106
▁selected	-10.211
▁latest	-10.2113
▁fixed	-10.214
▁tall	-10.2142
▁carefully	-10.2158
▁african	-10.2158
▁damaged	-10.2205
▁eaten	-10.2218
▁button	-10.2239
▁cloth	-10.2257
ature	-10.2263
ologist	-10.2269
▁abandoned	-10.2269
▁advertising	-10.2269
▁memorial	-10.2269
▁sculpture	-10.2269
▁temporarily	-10.2269
▁client	-10.2269
▁harbor	-10.2269
▁munster	-10.2269
▁snake	-10.2269
▁workshop	-10.2269
▁cinema	-10.2269
▁website	-10.2269
▁credit	-10.227
▁dropped	-10.227
▁reign	-10.227
▁nazi	-10.227
▁apprenticeship	-10.227
▁opposition	-10.227
▁frau	-10.227
▁solid	-10.2271
▁guess	-10.2273
▁wound	-10.2273
▁installation	-10.2273
▁subsidi	-10.2276
▁shall	-10.2279
low	-10.2279
▁fold	-10.2279
▁string	-10.2281
▁stamp	-10.2283
▁lady	-10.2287
tional	-10.229
▁cash	-10.2292
▁carl	-10.2298
▁sweden	-10.2309
▁rad	-10.232
▁file	-10.2324
air	-10.2327
▁hunting	-10.2328
▁pole	-10.233
▁glasses	-10.2332
▁mid	-10.2337
▁height	-10.2346
▁drawing	-10.239
▁begin	-10.2392
ground	-10.2396
▁sad	-10.2397
▁solve	-10.2399
▁cheat	-10.2401
▁concerned	-10.2403
▁initial	-10.2407
▁recording	-10.244
▁uncle	-10.2442
▁japan	-10.2448
▁discipline	-10.2448
▁estimate	-10.2448
▁identical	-10.2448
▁identified	-10.2448
▁occupation	-10.2448
▁philipp	-10.2448
▁phrase	-10.2448
▁ultimate	-10.2448
▁incident	-10.2448
▁presence	-10.2448
▁victory	-10.2448
▁britain	-10.2448
▁scratch	-10.2448
▁eagle	-10.2448
▁slope	-10.2448
▁siblings	-10.2448
▁flies	-10.2448
▁bodies	-10.2448
▁monitor	-10.2449
▁integrated	-10.2449
▁devote	-10.245
▁municipalities	-10.245
▁potatoes	-10.2457
▁clock	-10.2457
▁lift	-10.2457
▁interpretation	-10.2458
▁mister	-10.2467
▁valve	-10.2468
▁fake	-10.2469
▁sex	-10.2476
▁cent	-10.2478
▁fighting	-10.2482
▁poly	-10.2487
▁enable	-10.2487
▁passion	-10.2497
▁seal	-10.252
▁terr	-10.2568
▁employee	-10.2578
ett	-10.2602
▁mining	-10.2607
▁coal	-10.2617
ight	-10.2617
▁dar	-10.2622
▁existing	-10.2629
▁abbreviation	-10.263
▁ceremony	-10.263
▁executed	-10.263
▁maximum	-10.263
▁qualified	-10.263
▁railroad	-10.263
▁wurttemberg	-10.263
▁asleep	-10.263
▁parallel	-10.263
▁fortress	-10.263
▁freelance	-10.263
▁pirate	-10.263
▁steep	-10.263
▁comprise	-10.263
▁korea	-10.2634
▁dramatic	-10.2635
▁hence	-10.2635
▁armed	-10.2637
▁equation	-10.2638
▁conventional	-10.2647
poli	-10.2648
▁delivery	-10.2656
▁format	-10.266
▁bush	-10.2661
well	-10.2668
▁declared	-10.2675
▁shin	-10.2682
▁complet	-10.2685
▁drawn	-10.2689
mund	-10.2699
▁sie	-10.2708
▁flee	-10.2713
itive	-10.2714
▁toast	-10.2722
▁bath	-10.2722
bling	-10.2743
▁classes	-10.2747
▁practiced	-10.2752
▁score	-10.2765
▁improve	-10.2765
▁weigh	-10.2767
▁swing	-10.2793
▁forced	-10.2813
▁consumption	-10.2815
▁habitat	-10.2815
▁response	-10.2815
▁garbage	-10.2815
▁senior	-10.2815
▁thread	-10.2815
▁trunk	-10.2815
▁portrait	-10.2815
▁shore	-10.2815
▁mount	-10.2816
platz	-10.2817
jan	-10.2817
▁regiment	-10.2824
▁secretary	-10.2827
▁encouraged	-10.2827
▁boil	-10.283
▁oven	-10.2833
▁representation	-10.2835
▁albert	-10.2838
enheim	-10.2843
▁angle	-10.2844
▁mai	-10.2846
▁distinguished	-10.2855
▁secured	-10.2858
▁confirmed	-10.2861
▁johannes	-10.2862
▁boiler	-10.2873
▁accused	-10.2877
cule	-10.2889
▁cave	-10.29
▁agreed	-10.2901
▁interpret	-10.2915
▁gain	-10.2926
▁leon	-10.2957
▁evaluat	-10.2994
▁gall	-10.2998
▁argument	-10.3004
▁engaged	-10.3004
▁knife	-10.3004
▁unusual	-10.3004
▁imagine	-10.3004
▁torture	-10.3004
▁gottingen	-10.3004
▁plot	-10.3004
▁baking	-10.3004
▁engel	-10.3007
▁bigger	-10.3018
▁slid	-10.3018
▁atmosphere	-10.3025
▁combined	-10.3032
hand	-10.3036
▁soft	-10.3037
▁missed	-10.3044
ville	-10.3063
▁observed	-10.3071
win	-10.3139
▁arrive	-10.3145
▁surprise	-10.3145
rising	-10.3189
▁fift	-10.3193
▁advisor	-10.3196
▁efficiency	-10.3196
▁excellen	-10.3196
▁exposed	-10.3196
▁medieval	-10.3196
▁significance	-10.3196
▁thereafter	-10.3196
▁disturb	-10.3196
▁wagner	-10.3196
▁promotion	-10.3196
▁afternoon	-10.3196
▁stefan	-10.3196
▁tough	-10.3196
▁debut	-10.3196
▁dishes	-10.3197
▁backwards	-10.3197
▁minim	-10.3201
▁farming	-10.3203
▁controlled	-10.3204
▁effective	-10.3208
▁prisoners	-10.3209
▁earl	-10.3226
▁semi	-10.324
▁rap	-10.3244
▁scored	-10.3249
▁mental	-10.3259
▁indicated	-10.3264
▁extra	-10.3267
▁reader	-10.3267
▁butter	-10.3291
▁dur	-10.3291
▁profession	-10.3298
bro	-10.3303
▁journal	-10.3305
▁reject	-10.3314
▁demo	-10.3329
▁climbing	-10.3336
friend	-10.3353
▁wire	-10.3375
run	-10.3378
▁nie	-10.3379
▁lib	-10.3385
box	-10.3389
necessarily	-10.3392
▁absorb	-10.3392
▁accompanied	-10.3392
▁augsburg	-10.3392
▁mediterranean	-10.3392
▁populated	-10.3392
▁injuries	-10.3392
▁therapy	-10.3392
▁plum	-10.3392
▁birthday	-10.3393
▁swim	-10.3401
▁dumb	-10.3403
bruck	-10.3406
▁considerable	-10.3407
▁jack	-10.3407
▁illness	-10.3409
▁reache	-10.3417
▁stir	-10.3423
▁prohibited	-10.3435
▁dense	-10.3439
▁mac	-10.3459
▁constantly	-10.3467
▁closet	-10.3471
▁separately	-10.3501
ault	-10.3506
▁mention	-10.3516
▁advance	-10.3541
▁collected	-10.3552
▁surely	-10.356
▁privately	-10.3575
▁posses	-10.3592
▁educated	-10.3592
▁infantry	-10.3592
▁neglect	-10.3592
▁nervous	-10.3592
▁pleasure	-10.3592
▁vacuum	-10.3592
▁widespread	-10.3592
▁retired	-10.3592
▁brazil	-10.3592
▁crash	-10.3592
▁navy	-10.3592
▁illegal	-10.3592
▁behave	-10.3592
▁funeral	-10.3592
▁fiction	-10.3593
▁lyric	-10.3593
▁eighteen	-10.3593
▁tomato	-10.3593
▁aware	-10.3594
▁rapid	-10.3595
▁mineral	-10.3595
▁spark	-10.3596
▁deutsche	-10.3596
▁olive	-10.3597
▁leadership	-10.3597
▁slim	-10.3597
▁tear	-10.3598
▁altar	-10.3602
▁grandma	-10.3604
▁grape	-10.3605
kow	-10.3605
▁seventy	-10.3607
▁worst	-10.361
▁reformation	-10.3613
▁arrested	-10.3631
▁lecturer	-10.364
▁properly	-10.3642
▁graz	-10.365
▁rein	-10.3665
▁becoming	-10.3666
▁frei	-10.3681
▁bowl	-10.3687
▁successes	-10.3698
▁construct	-10.3709
▁businesses	-10.3715
bahn	-10.3715
▁extend	-10.3718
▁fail	-10.3732
water	-10.3784
▁tub	-10.3791
▁aggressive	-10.3796
▁autonomous	-10.3796
▁celebrated	-10.3796
▁congress	-10.3796
▁delicious	-10.3796
▁executive	-10.3796
▁ignore	-10.3796
▁october	-10.3796
▁password	-10.3796
▁qualification	-10.3796
▁telephone	-10.3796
▁welcome	-10.3796
▁confess	-10.3796
▁curious	-10.3796
▁hardware	-10.3796
▁literally	-10.3796
▁violin	-10.3796
▁email	-10.3796
▁width	-10.3796
▁vacation	-10.3796
▁nineteen	-10.3796
▁muller	-10.3796
▁amateur	-10.3796
▁saving	-10.3796
▁hiking	-10.3796
▁moderate	-10.3797
▁mood	-10.3797
▁borrow	-10.3799
▁operator	-10.3799
▁fault	-10.38
▁admitted	-10.3803
▁archive	-10.3806
▁versa	-10.3808
▁treatment	-10.3809
▁radiation	-10.381
▁socialism	-10.3812
▁andrea	-10.3819
coming	-10.383
▁math	-10.3832
▁delivered	-10.3856
▁mono	-10.3872
▁zo	-10.3881
▁vary	-10.3887
▁loudly	-10.3895
▁suffering	-10.3899
▁emil	-10.3901
▁healthy	-10.3904
▁ji	-10.393
▁net	-10.3941
right	-10.3963
▁recover	-10.3965
break	-10.3966
▁val	-10.3968
▁sam	-10.3971
▁fighter	-10.3994
uous	-10.3998
▁approval	-10.4004
▁certificate	-10.4004
▁communist	-10.4004
▁exercise	-10.4004
▁expansion	-10.4004
▁external	-10.4004
▁hannover	-10.4004
▁netherlands	-10.4004
▁rudolf	-10.4004
▁visual	-10.4004
▁whisper	-10.4004
▁afford	-10.4004
▁convince	-10.4004
▁gustav	-10.4004
▁merchant	-10.4004
▁purchase	-10.4004
▁palace	-10.4004
▁breast	-10.4004
▁plug	-10.4005
▁false	-10.4005
▁physics	-10.4005
▁awake	-10.4005
▁monday	-10.4005
▁hollow	-10.4005
▁gap	-10.4006
▁occurred	-10.4009
▁classification	-10.4009
▁observation	-10.4014
▁dominate	-10.4016
▁blade	-10.4017
▁venu	-10.4017
▁hunt	-10.402
▁gang	-10.402
▁prior	-10.4027
▁fate	-10.4034
▁invited	-10.4047
bell	-10.4052
rank	-10.4069
▁interpreted	-10.4092
▁zoo	-10.4115
▁moor	-10.4172
▁bark	-10.4173
▁hermann	-10.4178
▁dispos	-10.4192
▁protest	-10.4215
▁centuries	-10.4217
▁cigarette	-10.4217
▁circumstances	-10.4217
▁enormous	-10.4217
▁mirror	-10.4217
▁resolution	-10.4217
▁syndrome	-10.4217
▁yourselves	-10.4217
▁acoustic	-10.4217
▁domestic	-10.4217
▁grammar	-10.4217
▁spaghetti	-10.4217
▁athlete	-10.4217
▁intensive	-10.4217
▁motivat	-10.4217
▁uniform	-10.4217
▁muscle	-10.4217
▁cruise	-10.4217
▁shield	-10.4217
▁erect	-10.4217
▁wagon	-10.4217
▁evil	-10.4217
▁exceed	-10.4217
▁permitted	-10.4219
▁input	-10.4221
▁urge	-10.4225
▁remarkable	-10.4225
▁cele	-10.4227
▁expl	-10.4231
▁specialized	-10.4233
▁passage	-10.4235
▁fox	-10.4236
▁angeles	-10.4236
▁parent	-10.4241
flow	-10.4245
▁ferry	-10.425
▁criticized	-10.4251
▁dirty	-10.4252
▁generated	-10.4254
▁examined	-10.4255
▁setting	-10.4256
▁strengthen	-10.4261
▁santa	-10.4299
▁breeding	-10.431
▁taxi	-10.4316
▁parliamentar	-10.4338
▁tar	-10.4366
▁secure	-10.4384
▁alter	-10.4391
hard	-10.4395
lude	-10.4399
bank	-10.442
lich	-10.4422
▁advertise	-10.443
▁category	-10.4435
▁colloquial	-10.4435
▁concentrate	-10.4435
▁cylinder	-10.4435
▁decrease	-10.4435
▁desperate	-10.4435
▁elaborate	-10.4435
▁employment	-10.4435
▁encounter	-10.4435
▁evangelical	-10.4435
▁frequency	-10.4435
▁gradually	-10.4435
▁intelligence	-10.4435
▁rebuilt	-10.4435
▁subordinate	-10.4435
▁thieves	-10.4435
▁servant	-10.4435
▁voltage	-10.4435
▁jurgen	-10.4435
▁firm	-10.4435
▁beauty	-10.4435
▁pacific	-10.4435
▁conservative	-10.4435
▁antenna	-10.4435
▁nerve	-10.4435
▁ensure	-10.4436
▁patron	-10.4437
▁burial	-10.444
▁elector	-10.444
▁slic	-10.4442
▁coins	-10.4442
▁preparation	-10.4442
▁excited	-10.4455
▁weapon	-10.4458
▁shade	-10.4462
▁james	-10.4464
▁kiel	-10.4467
▁spur	-10.4476
▁quant	-10.4497
▁researchers	-10.45
▁rebel	-10.4521
▁angel	-10.4526
▁laz	-10.4527
gau	-10.4533
▁observ	-10.4568
▁establish	-10.4575
▁pose	-10.4582
▁mast	-10.4587
▁buch	-10.4592
▁arab	-10.4592
witz	-10.4597
▁melt	-10.4602
▁equat	-10.4647
▁comprehensive	-10.4657
▁consequent	-10.4657
▁deployed	-10.4657
▁embarrass	-10.4657
▁joachim	-10.4657
▁politician	-10.4657
▁possibly	-10.4657
▁scatter	-10.4657
▁wolfgang	-10.4657
▁abbey	-10.4657
▁ceiling	-10.4657
▁variant	-10.4657
▁liberal	-10.4657
▁entry	-10.4657
▁mouse	-10.4657
▁golf	-10.4657
▁banned	-10.4658
▁rumor	-10.4658
▁happiness	-10.4658
▁tiny	-10.4659
▁selection	-10.4659
▁establishment	-10.4661
▁aachen	-10.4662
▁ginger	-10.4663
▁charts	-10.4665
▁grandpa	-10.4665
▁drag	-10.4666
▁manufactured	-10.4672
▁calm	-10.4693
▁belt	-10.4698
charging	-10.4699
▁sixth	-10.4709
▁implemented	-10.4722
▁shake	-10.4785
▁dust	-10.4788
▁hunter	-10.4803
▁affect	-10.4806
▁mile	-10.4825
neck	-10.4828
▁traumat	-10.4843
play	-10.485
rose	-10.487
▁ost	-10.4874
pleasant	-10.4884
▁advocate	-10.4884
▁aluminum	-10.4884
▁anniversary	-10.4884
▁concentration	-10.4884
▁fragment	-10.4884
▁ingredient	-10.4884
▁psychology	-10.4884
▁respond	-10.4884
▁sacrific	-10.4884
▁thirteen	-10.4884
▁imagination	-10.4884
▁indicator	-10.4884
▁rescue	-10.4884
▁synonym	-10.4884
▁shadow	-10.4884
▁zealand	-10.4884
▁indication	-10.4884
▁scholar	-10.4884
▁pupil	-10.4884
▁sword	-10.4884
▁stink	-10.4884
▁weimar	-10.4884
▁delay	-10.4885
▁shaft	-10.4886
▁crook	-10.4886
▁index	-10.4886
▁invented	-10.4888
▁radical	-10.4888
▁assess	-10.4889
▁nearby	-10.4892
▁hype	-10.4895
▁investigation	-10.4903
▁rocket	-10.4907
▁armor	-10.4916
▁rush	-10.4917
▁poland	-10.4919
▁continuously	-10.4921
▁allerg	-10.4924
▁refused	-10.4927
▁recovery	-10.4927
▁boxes	-10.4941
▁seeds	-10.4953
▁trailer	-10.4955
enstein	-10.4974
▁proportion	-10.5
▁arc	-10.503
▁lamb	-10.5064
▁compos	-10.5092
oxide	-10.5099
▁centimeters	-10.5117
▁circuit	-10.5117
▁crawl	-10.5117
▁danube	-10.5117
▁deputy	-10.5117
▁employer	-10.5117
▁infection	-10.5117
▁inhabited	-10.5117
▁insects	-10.5117
▁navigation	-10.5117
▁portuguese	-10.5117
▁substitute	-10.5117
▁cabinet	-10.5117
▁criteria	-10.5117
▁facade	-10.5117
▁pursued	-10.5117
▁tyrol	-10.5117
▁recipe	-10.5117
▁mobile	-10.5117
▁century	-10.5117
▁worldwide	-10.5117
▁flame	-10.5117
▁crucial	-10.5117
▁existence	-10.5117
▁kreuz	-10.5117
▁pianist	-10.5117
▁courtyard	-10.5117
▁resort	-10.5117
▁harvest	-10.5117
schaft	-10.5117
▁extent	-10.5117
▁altitude	-10.5117
▁gather	-10.5117
▁trend	-10.5117
▁werner	-10.5117
▁crisis	-10.5118
▁dozen	-10.512
▁adventure	-10.512
lena	-10.512
▁vocal	-10.512
▁glad	-10.5122
▁import	-10.5123
▁giant	-10.5124
▁pepper	-10.5125
▁trash	-10.5129
▁copies	-10.5132
▁duty	-10.5133
▁mason	-10.5138
▁laser	-10.5141
▁comic	-10.5143
▁hugo	-10.5147
▁doctorate	-10.5147
upon	-10.515
▁roughly	-10.5154
▁bench	-10.5156
▁alps	-10.5159
▁tick	-10.5162
meister	-10.5167
▁ripe	-10.5177
▁graf	-10.5231
▁brave	-10.5245
▁paint	-10.5275
▁accord	-10.5288
worth	-10.5316
▁dirt	-10.5316
▁nich	-10.5337
maker	-10.5347
▁commit	-10.5351
▁democracy	-10.5355
▁dissolved	-10.5355
▁eliminated	-10.5355
▁enterprise	-10.5355
▁jurisdiction	-10.5355
▁konrad	-10.5355
▁luxembourg	-10.5355
▁mathematics	-10.5355
▁mexico	-10.5355
▁motorcycle	-10.5355
▁preliminar	-10.5355
▁salzburg	-10.5355
▁september	-10.5355
▁thoroughly	-10.5355
▁explanation	-10.5355
▁fashion	-10.5355
▁somebody	-10.5355
▁draft	-10.5355
▁disgust	-10.5355
▁injury	-10.5355
▁sparse	-10.5355
▁honey	-10.5355
▁carpet	-10.5355
▁shipping	-10.5355
▁barrier	-10.5355
▁reverse	-10.5356
▁dried	-10.5356
▁canada	-10.5356
▁tennis	-10.5356
▁presum	-10.5357
▁consol	-10.5358
▁garage	-10.5361
▁fluid	-10.5363
▁dragon	-10.5364
▁gender	-10.5365
▁arabic	-10.5367
▁highlight	-10.5368
▁charter	-10.5369
▁airline	-10.5372
▁romantic	-10.5379
▁oak	-10.5384
plan	-10.5387
▁runner	-10.5388
▁sommer	-10.5395
▁palm	-10.5399
▁nave	-10.5402
▁fleet	-10.5423
▁solved	-10.5423
▁pf	-10.5486
▁baron	-10.5509
▁pope	-10.5522
▁continu	-10.554
▁frequent	-10.5556
▁continent	-10.5572
▁determin	-10.5577
▁basketball	-10.5599
▁capacity	-10.5599
▁execution	-10.5599
▁gymnastics	-10.5599
▁illustration	-10.5599
▁possibilities	-10.5599
▁pseudonym	-10.5599
▁reservoir	-10.5599
▁scissors	-10.5599
▁skeleton	-10.5599
▁wednesday	-10.5599
▁assistance	-10.5599
▁chancellor	-10.5599
▁compound	-10.5599
▁throat	-10.5599
▁turkish	-10.5599
▁stimula	-10.5599
▁combat	-10.5599
▁ghost	-10.5599
▁airplane	-10.5599
▁throne	-10.5599
▁motif	-10.5599
▁gallery	-10.5599
▁ninth	-10.5599
▁density	-10.5599
▁suburb	-10.5599
▁senate	-10.5599
▁addict	-10.5599
▁denied	-10.5599
▁clinic	-10.56
▁confusion	-10.5602
▁reconstruction	-10.5605
▁fellow	-10.5606
▁extraordinary	-10.5607
▁hammer	-10.5608
▁salad	-10.561
▁dependent	-10.5615
▁tribe	-10.5619
▁basement	-10.562
▁popularity	-10.5624
ladder	-10.563
▁attributed	-10.5631
▁findings	-10.5635
▁chat	-10.565
▁decid	-10.5655
▁advanced	-10.5661
▁diverse	-10.5675
▁wu	-10.5676
▁holiday	-10.5678
▁rattl	-10.5701
▁mechanical	-10.5734
▁obvious	-10.5806
point	-10.5808
stream	-10.581
▁digit	-10.5812
fried	-10.5812
▁extract	-10.5831
▁advent	-10.5848
▁dynasty	-10.5849
▁efficient	-10.5849
▁goalkeeper	-10.5849
▁mecklenburg	-10.5849
▁pronounce	-10.5849
▁supplement	-10.5849
▁suspension	-10.5849
▁bankrupt	-10.5849
▁comparable	-10.5849
▁thuringia	-10.5849
▁legislati	-10.5849
▁chapter	-10.5849
▁segment	-10.5849
▁parcel	-10.5849
▁architectural	-10.5849
▁vision	-10.5849
▁repeatedly	-10.5849
▁programming	-10.5849
▁grim	-10.5849
▁psycho	-10.5851
▁orbit	-10.5852
▁cattle	-10.5852
▁distinction	-10.5853
▁lutheran	-10.5856
▁twin	-10.5856
▁voluntarily	-10.5857
▁fiber	-10.5858
▁baltic	-10.5859
▁grun	-10.5865
▁suggestion	-10.5868
▁hohen	-10.5868
▁luther	-10.587
▁decorated	-10.587
▁payment	-10.5876
▁correction	-10.5878
▁forestry	-10.5881
▁nail	-10.5897
▁moral	-10.5897
▁accuse	-10.5907
▁peel	-10.5914
▁finn	-10.5915
▁improved	-10.5918
▁chile	-10.5953
▁gravel	-10.6027
▁scal	-10.6029
▁divid	-10.6029
▁invite	-10.6057
field	-10.6063
▁magnet	-10.6094
▁demolition	-10.6105
▁elisabeth	-10.6105
▁facebook	-10.6105
▁interaction	-10.6105
▁jersey	-10.6105
▁karlsruhe	-10.6105
▁moscow	-10.6105
▁opportunities	-10.6105
▁opportunity	-10.6105
▁peninsula	-10.6105
▁sequence	-10.6105
▁symptoms	-10.6105
▁territori	-10.6105
▁triangle	-10.6105
▁unconscious	-10.6105
▁voluntary	-10.6105
▁islamic	-10.6105
▁regulate	-10.6105
▁suicide	-10.6105
▁underneath	-10.6105
▁adolf	-10.6105
▁penalty	-10.6105
▁summit	-10.6105
▁rabbi	-10.6105
▁temple	-10.6105
▁pioneer	-10.6105
▁frost	-10.6105
▁introduct	-10.6105
▁spoon	-10.6105
▁reliable	-10.6105
▁grill	-10.6105
▁canadian	-10.6105
▁bundestag	-10.6105
▁ireland	-10.6106
▁postpon	-10.6106
▁truly	-10.6106
▁intense	-10.6106
▁expectations	-10.6106
▁sample	-10.6106
▁bounc	-10.6107
▁brut	-10.6108
▁arrangement	-10.6108
▁sustainable	-10.6108
▁klein	-10.611
▁pause	-10.6112
▁genetic	-10.6113
▁collective	-10.6115
▁glow	-10.6115
▁ridge	-10.6116
▁elder	-10.6119
▁consistent	-10.6124
▁insert	-10.6128
▁noticeable	-10.6132
▁questionable	-10.6141
▁update	-10.6141
▁seventh	-10.6147
▁float	-10.6158
▁tang	-10.6165
▁marine	-10.6165
▁linear	-10.6174
▁adj	-10.6184
▁bibl	-10.6186
▁ferr	-10.6209
▁cage	-10.6213
▁soldier	-10.6217
▁scr	-10.6298
mpression	-10.6328
▁continuous	-10.6329
craft	-10.6329
▁rough	-10.6354
▁accurate	-10.6368
▁anonymous	-10.6368
▁blossom	-10.6368
▁definition	-10.6368
▁dortmund	-10.6368
▁geographic	-10.6368
▁grandparents	-10.6368
▁intelligent	-10.6368
▁norwegian	-10.6368
▁november	-10.6368
▁resemble	-10.6368
▁schmidt	-10.6368
▁schneider	-10.6368
▁supervisor	-10.6368
▁neutral	-10.6368
▁alfred	-10.6368
▁spiritual	-10.6368
▁analyze	-10.6368
▁josef	-10.6368
▁thumb	-10.6368
▁lubeck	-10.6368
▁vector	-10.6368
▁historian	-10.6368
▁dancing	-10.6368
▁goethe	-10.6368
violet	-10.6369
▁weird	-10.6369
▁alternat	-10.637
▁signature	-10.637
▁mask	-10.6372
▁drone	-10.6373
▁duct	-10.6373
▁tension	-10.6374
▁sheep	-10.6376
▁hook	-10.6379
▁cultivated	-10.638
▁muhl	-10.6384
▁cab	-10.6389
▁items	-10.639
▁rotation	-10.6396
▁consideration	-10.6401
▁mala	-10.6404
▁june	-10.6405
▁nau	-10.6405
▁pink	-10.6407
▁losses	-10.6422
schedule	-10.6439
tzel	-10.6491
▁grade	-10.6492
▁deliver	-10.6521
▁implement	-10.6549
▁succeed	-10.656
▁disappear	-10.656
▁compare	-10.6588
space	-10.6604
▁encrypt	-10.6629
▁abolish	-10.6638
▁adolescent	-10.6638
▁helicopter	-10.6638
▁jakob	-10.6638
▁manufacturing	-10.6638
▁mathematical	-10.6638
▁nonsense	-10.6638
▁revenue	-10.6638
▁structural	-10.6638
▁transmission	-10.6638
▁violence	-10.6638
▁withdraw	-10.6638
▁capsule	-10.6638
▁curtain	-10.6638
▁retreat	-10.6638
▁unfair	-10.6638
▁budget	-10.6638
▁linux	-10.6638
▁variable	-10.6638
▁pocket	-10.6638
▁louis	-10.6638
▁optical	-10.6639
▁hunger	-10.6639
▁retain	-10.6639
▁bundes	-10.6639
▁lunch	-10.6639
▁pretend	-10.6639
▁mystery	-10.6639
▁jelly	-10.6639
▁particle	-10.664
▁thermal	-10.664
▁loyal	-10.6641
▁conservation	-10.6642
▁preferred	-10.6642
▁fritz	-10.6643
▁linguistic	-10.6643
holz	-10.6644
▁referee	-10.6644
▁skat	-10.6646
▁encryption	-10.6648
▁janni	-10.6648
▁volcano	-10.6656
▁lemon	-10.6658
▁marburg	-10.6665
▁merit	-10.6667
stedt	-10.6681
▁fries	-10.6698
▁georgia	-10.672
schule	-10.675
▁bang	-10.676
▁seiz	-10.6797
▁measur	-10.6806
leben	-10.6812
▁replac	-10.6838
uction	-10.6872
▁span	-10.6889
born	-10.6893
▁fog	-10.6909
▁categories	-10.6916
▁divorce	-10.6916
▁emotions	-10.6916
▁forbidden	-10.6916
▁fracture	-10.6916
▁infrastructure	-10.6916
▁lieutenant	-10.6916
▁potsdam	-10.6916
▁quote	-10.6916
▁regret	-10.6916
▁slept	-10.6916
▁sneeze	-10.6916
▁varieties	-10.6916
▁dessert	-10.6916
▁hobby	-10.6916
▁suprem	-10.6916
▁prevail	-10.6916
▁plaster	-10.6916
▁gesture	-10.6916
▁random	-10.6916
▁sexual	-10.6916
▁turtle	-10.6916
▁daniel	-10.6916
▁disabled	-10.6917
▁bypass	-10.6917
▁humor	-10.6917
▁alliance	-10.6917
▁domain	-10.6917
▁gaze	-10.6918
▁crypt	-10.6918
▁denmark	-10.6918
▁mild	-10.6919
▁poisonous	-10.6919
▁seminar	-10.6919
▁dialogue	-10.692
▁toxic	-10.692
▁priority	-10.6922
▁revis	-10.6923
▁harmless	-10.6924
▁plateau	-10.6924
▁deadline	-10.6924
▁systematic	-10.6924
▁ulm	-10.6926
▁flesh	-10.6927
▁fame	-10.6935
▁govern	-10.6935
▁upright	-10.6937
▁fool	-10.6938
▁delight	-10.6943
▁scan	-10.6953
▁worm	-10.6961
▁nil	-10.697
alogue	-10.6997
▁tide	-10.6999
▁sang	-10.7049
▁obtain	-10.7124
wood	-10.7164
power	-10.7165
▁examine	-10.7167
▁hike	-10.7172
ji	-10.7177
stand	-10.7178
pole	-10.72
▁assumption	-10.7202
▁belgium	-10.7202
▁chemistry	-10.7202
▁demolished	-10.7202
▁elevator	-10.7202
▁explosive	-10.7202
▁february	-10.7202
▁furniture	-10.7202
▁guarantee	-10.7202
▁heidelberg	-10.7202
▁illustrate	-10.7202
▁influential	-10.7202
▁initiated	-10.7202
▁manuscript	-10.7202
▁negotiations	-10.7202
▁renowned	-10.7202
▁retirement	-10.7202
▁schleswig	-10.7202
▁struggle	-10.7202
▁suspended	-10.7202
▁temporary	-10.7202
▁thursday	-10.7202
▁vegetarian	-10.7202
▁displac	-10.7202
▁exciting	-10.7202
▁intervention	-10.7202
▁mixture	-10.7202
▁pizza	-10.7202
▁discrete	-10.7202
▁download	-10.7202
▁dynam	-10.7202
▁einstein	-10.7202
▁google	-10.7202
▁virus	-10.7202
▁abroad	-10.7202
▁clown	-10.7202
▁schiller	-10.7202
▁renew	-10.7202
▁cherry	-10.7202
▁blank	-10.7202
▁clerk	-10.7202
▁milan	-10.7202
▁stolen	-10.7202
▁friday	-10.7203
▁edible	-10.7203
▁reduction	-10.7205
▁mamm	-10.7205
▁basin	-10.7205
▁mandate	-10.7206
▁airfield	-10.7206
▁erna	-10.7206
▁mortal	-10.7207
▁burden	-10.7207
▁egyptian	-10.7207
▁ownership	-10.7208
prop	-10.7209
▁friendship	-10.721
▁warned	-10.7211
▁kohl	-10.7213
▁yu	-10.7216
▁heinz	-10.7216
▁invest	-10.7216
▁cookies	-10.7224
cast	-10.7228
▁aunt	-10.7236
▁chef	-10.7238
nkel	-10.7238
▁pinch	-10.7239
▁stall	-10.724
▁prepar	-10.7245
▁chop	-10.7256
▁curse	-10.731
fusion	-10.7345
traction	-10.7385
▁lend	-10.7422
▁fix	-10.744
▁generate	-10.7445
▁sudden	-10.7454
▁derive	-10.746
course	-10.7477
▁egypt	-10.749
▁algorithm	-10.7496
▁amazon	-10.7496
▁announcement	-10.7496
▁curiosity	-10.7496
▁excluded	-10.7496
▁ferdinand	-10.7496
▁grammatical	-10.7496
▁helmet	-10.7496
▁narrator	-10.7496
▁psychological	-10.7496
▁sensitive	-10.7496
▁surrender	-10.7496
▁donkey	-10.7496
▁florida	-10.7496
▁interface	-10.7496
▁margaret	-10.7496
▁subtitl	-10.7496
▁prague	-10.7496
▁fossil	-10.7496
▁lorenz	-10.7496
▁translator	-10.7496
▁widow	-10.7496
▁swamp	-10.7496
▁submit	-10.7496
▁greeting	-10.7496
▁pillar	-10.7496
▁portray	-10.7496
▁chalk	-10.7496
▁abstract	-10.7497
▁carrot	-10.7497
▁angry	-10.7497
▁genus	-10.7497
▁trench	-10.7498
▁queue	-10.7498
▁irish	-10.7498
▁shark	-10.75
▁bend	-10.7501
▁assert	-10.7501
▁export	-10.7502
▁hom	-10.7502
▁biological	-10.7504
▁attractive	-10.7507
▁wagg	-10.7512
▁documentary	-10.7513
gitte	-10.7516
▁sink	-10.7522
▁salv	-10.7539
wig	-10.7553
▁collector	-10.7565
▁syl	-10.76
ubb	-10.7627
▁moni	-10.7647
stairs	-10.7691
▁terribl	-10.7712
finite	-10.7739
▁immediate	-10.7757
▁designat	-10.7762
▁volcan	-10.7781
▁refuse	-10.7781
▁squa	-10.7789
satisfied	-10.7799
▁accompany	-10.7799
▁assignment	-10.7799
▁bachelor	-10.7799
▁columbia	-10.7799
▁conscience	-10.7799
▁diamond	-10.7799
▁engagement	-10.7799
▁ensemble	-10.7799
▁equivalent	-10.7799
▁franconia	-10.7799
▁hometown	-10.7799
▁overwhelm	-10.7799
▁punished	-10.7799
▁societies	-10.7799
▁suspicious	-10.7799
▁swallow	-10.7799
▁symphon	-10.7799
▁wurzburg	-10.7799
▁dwarf	-10.7799
▁emotional	-10.7799
▁fabric	-10.7799
▁metropoli	-10.7799
▁complement	-10.7799
▁matrix	-10.7799
▁landlord	-10.7799
▁turkey	-10.7799
▁melody	-10.7799
▁leather	-10.7799
▁ultra	-10.7799
▁heritage	-10.7799
▁fifteen	-10.7799
▁personnel	-10.7799
▁kaiser	-10.7799
▁ladies	-10.78
▁scrap	-10.78
▁bathroom	-10.78
▁strawberr	-10.78
▁quantities	-10.78
▁resistant	-10.7801
▁banana	-10.7801
▁vertical	-10.7801
▁soap	-10.7801
▁insult	-10.7802
▁stalk	-10.7802
▁tractor	-10.7803
▁beforehand	-10.7808
▁integration	-10.7809
▁gunther	-10.7809
▁classified	-10.781
▁steak	-10.781
licate	-10.7811
▁insight	-10.7813
▁implie	-10.7815
▁evaluation	-10.7815
▁stability	-10.7818
enthal	-10.7835
▁deposit	-10.7848
weiler	-10.787
▁diplomat	-10.7904
▁cancell	-10.7934
▁symbolize	-10.7936
▁mechanic	-10.794
▁baker	-10.7977
▁sham	-10.7979
▁styl	-10.7979
▁impos	-10.799
grid	-10.7999
▁consequence	-10.8008
▁copi	-10.8014
▁confirm	-10.8033
▁declar	-10.8033
▁expand	-10.8033
zig	-10.8094
▁poison	-10.8109
▁physi	-10.811
▁acknowledge	-10.8112
▁bayreuth	-10.8112
▁calculation	-10.8112
▁destruction	-10.8112
▁fireplace	-10.8112
▁horror	-10.8112
▁independence	-10.8112
▁membrane	-10.8112
▁miracle	-10.8112
▁orthodox	-10.8112
▁pharmaceutic	-10.8112
▁renovation	-10.8112
▁spectator	-10.8112
▁tuesday	-10.8112
▁virgin	-10.8112
▁contrary	-10.8112
▁frogs	-10.8112
▁medication	-10.8112
▁monarch	-10.8112
▁mozilla	-10.8112
▁secular	-10.8112
▁powder	-10.8112
nforcement	-10.8112
▁schwarz	-10.8112
▁theoretical	-10.8112
▁pencil	-10.8112
▁feather	-10.8112
▁saturday	-10.8112
▁spider	-10.8112
▁terrace	-10.8112
▁contest	-10.8112
▁stylistic	-10.8112
▁silesia	-10.8113
▁trading	-10.8113
▁essen	-10.8114
▁holstein	-10.8114
▁participation	-10.8115
▁automatic	-10.8118
▁jacket	-10.8118
▁simon	-10.8121
▁rival	-10.8121
▁java	-10.8124
▁clip	-10.8129
ngest	-10.815
▁schwe	-10.815
▁relie	-10.8154
▁hatch	-10.8176
hipped	-10.8211
schau	-10.8373
position	-10.838
▁criticize	-10.8383
▁integr	-10.8421
▁accent	-10.8429
▁gentle	-10.8433
itude	-10.8434
▁principal	-10.8434
▁argentina	-10.8434
▁confident	-10.8434
▁contradict	-10.8434
▁convincing	-10.8434
▁evolution	-10.8434
▁extinct	-10.8434
▁grandmother	-10.8434
▁impatient	-10.8434
▁innovation	-10.8434
▁libraries	-10.8434
▁majesty	-10.8434
▁perception	-10.8434
▁recreation	-10.8434
▁relegation	-10.8434
▁reputation	-10.8434
▁sebastian	-10.8434
▁striking	-10.8434
▁supplier	-10.8434
▁underestimate	-10.8434
▁wikipedia	-10.8434
▁colonial	-10.8434
▁compensation	-10.8434
▁moderator	-10.8434
▁observatory	-10.8434
▁separation	-10.8434
▁cough	-10.8434
▁disorder	-10.8434
▁revenge	-10.8434
▁perceive	-10.8434
▁sneak	-10.8434
▁terrain	-10.8434
▁optim	-10.8434
▁injured	-10.8434
▁erfurt	-10.8434
▁superior	-10.8434
▁scandal	-10.8434
▁shaking	-10.8434
▁premier	-10.8434
▁cardinal	-10.8434
▁achievements	-10.8434
▁estonia	-10.8435
▁frisian	-10.8435
▁textile	-10.8435
▁bernhard	-10.8435
▁betray	-10.8436
▁purple	-10.8436
▁axis	-10.8437
▁kramer	-10.8438
▁bohm	-10.8438
▁collaboration	-10.8438
▁serbia	-10.8438
▁athens	-10.8441
▁nieder	-10.8442
▁exile	-10.8445
▁massage	-10.8446
▁implementation	-10.8447
▁specifically	-10.8447
▁objective	-10.8451
▁schult	-10.8458
acent	-10.8465
▁voting	-10.8465
roscop	-10.8546
hawk	-10.8595
▁combine	-10.8717
▁apparent	-10.8725
▁hip	-10.8736
florescence	-10.8767
▁captured	-10.8767
▁chimney	-10.8767
▁compromise	-10.8767
▁corporation	-10.8767
▁corridor	-10.8767
▁creativity	-10.8767
▁disappointed	-10.8767
▁fertile	-10.8767
▁fulfill	-10.8767
▁hollywood	-10.8767
▁hungarian	-10.8767
▁nephew	-10.8767
▁nickname	-10.8767
▁renaissance	-10.8767
▁reproduce	-10.8767
▁restrictions	-10.8767
▁slalom	-10.8767
▁spontaneous	-10.8767
▁surprising	-10.8767
▁uncertain	-10.8767
▁enemies	-10.8767
▁module	-10.8767
▁peasant	-10.8767
▁squadron	-10.8767
▁tributar	-10.8767
▁disagree	-10.8767
▁robber	-10.8767
▁slogan	-10.8768
▁wreck	-10.8768
▁greece	-10.8768
▁smith	-10.8768
▁retail	-10.8768
▁defect	-10.8768
▁inscription	-10.8768
▁witch	-10.8768
▁couch	-10.8768
▁drift	-10.8768
▁bulb	-10.8768
▁jacob	-10.8768
▁duchy	-10.8768
▁oscar	-10.8768
▁alleged	-10.8768
▁plent	-10.8769
▁volks	-10.8769
▁scottish	-10.8769
▁neighborhood	-10.877
▁jones	-10.877
▁sought	-10.8772
▁creek	-10.8773
▁danish	-10.8773
▁interval	-10.8775
▁norway	-10.8776
▁ottoman	-10.8777
▁alert	-10.8829
▁giga	-10.885
▁custom	-10.8913
trogen	-10.8945
hoff	-10.9029
▁prussia	-10.908
junction	-10.9112
▁alphabet	-10.9112
▁breakthrough	-10.9112
▁chronicle	-10.9112
▁confidence	-10.9112
▁corruption	-10.9112
▁fertilize	-10.9112
▁frequencies	-10.9112
▁identify	-10.9112
▁irritate	-10.9112
▁phenomenon	-10.9112
▁provision	-10.9112
▁renovated	-10.9112
▁reservation	-10.9112
▁screwdriver	-10.9112
▁template	-10.9112
▁unbelievable	-10.9112
▁wiesbaden	-10.9112
▁anywhere	-10.9112
▁muslim	-10.9112
▁poverty	-10.9112
▁balcony	-10.9112
▁habits	-10.9112
▁laundry	-10.9112
▁portugal	-10.9112
▁replacement	-10.9112
▁vibrat	-10.9112
▁nominated	-10.9112
▁sensation	-10.9112
▁attitude	-10.9112
▁fulda	-10.9112
▁colony	-10.9113
▁outdoor	-10.9113
▁programme	-10.9113
▁midfield	-10.9113
▁junk	-10.9113
▁gerhard	-10.9114
▁departure	-10.9114
ybody	-10.9114
▁moped	-10.9115
▁jackson	-10.9117
▁cannon	-10.9118
▁assessment	-10.9119
▁partnership	-10.9121
▁vault	-10.9124
▁upset	-10.9128
statt	-10.9139
▁schwerin	-10.9149
poo	-10.9224
abea	-10.9319
▁cancel	-10.932
▁techno	-10.9334
▁distract	-10.9344
▁discuss	-10.9382
▁prohibit	-10.9391
▁distinguish	-10.9391
issa	-10.94
rough	-10.9403
▁kilometer	-10.9414
▁reconstruct	-10.946
▁attenti	-10.9469
▁archaeological	-10.9469
▁champagne	-10.9469
▁competitor	-10.9469
▁conscious	-10.9469
▁conservatory	-10.9469
▁cyclist	-10.9469
▁darmstadt	-10.9469
▁disadvantage	-10.9469
▁elegant	-10.9469
▁greifswald	-10.9469
▁nuremberg	-10.9469
▁occurrence	-10.9469
▁pedestrian	-10.9469
▁pomerania	-10.9469
▁prosecutor	-10.9469
▁recognizable	-10.9469
▁staircase	-10.9469
▁supplied	-10.9469
▁telescop	-10.9469
▁wrestling	-10.9469
▁bohemia	-10.9469
▁circum	-10.9469
▁eduard	-10.9469
▁penguin	-10.9469
▁qualify	-10.9469
▁victoria	-10.9469
▁athletic	-10.9469
▁database	-10.9469
▁wrapp	-10.9469
▁entertain	-10.9469
▁cherries	-10.9469
▁scope	-10.9469
▁glove	-10.947
▁hanover	-10.947
▁helmut	-10.947
▁michel	-10.947
▁babies	-10.947
▁balloon	-10.947
▁casual	-10.947
▁motto	-10.947
▁kassel	-10.947
▁endanger	-10.947
▁senator	-10.947
▁spray	-10.947
▁lodge	-10.947
▁convey	-10.947
▁refine	-10.947
▁restored	-10.947
▁schnitz	-10.947
▁offence	-10.947
▁croatia	-10.947
▁fence	-10.947
▁coalition	-10.9471
▁advers	-10.9471
▁appeti	-10.9472
▁diesel	-10.9472
▁moths	-10.9474
▁vogel	-10.9475
▁trainee	-10.9477
▁slate	-10.9477
▁feud	-10.9479
▁charles	-10.9479
▁automat	-10.9491
▁bolt	-10.9494
▁resist	-10.9497
productive	-10.9511
media	-10.9584
▁peaceful	-10.9602
borg	-10.9674
▁commen	-10.9706
▁wedg	-10.9717
▁analog	-10.973
fels	-10.9777
▁define	-10.9789
▁preserve	-10.9789
holder	-10.9791
bridge	-10.9801
fortunately	-10.9831
▁communicat	-10.9832
▁carpenter	-10.984
▁cofounder	-10.984
▁dissertation	-10.984
▁fantasy	-10.984
▁ignorance	-10.984
▁mattress	-10.984
▁mexican	-10.984
▁plaintiff	-10.984
▁scotland	-10.984
▁sovereign	-10.984
▁statistics	-10.984
▁submarines	-10.984
▁unsuccessful	-10.984
▁upgrade	-10.984
▁utensils	-10.984
▁civic	-10.984
▁psychiatr	-10.984
▁mozart	-10.984
▁sandwich	-10.984
▁typing	-10.984
▁packaging	-10.984
▁oneself	-10.984
▁sausage	-10.984
▁courage	-10.984
▁simson	-10.984
▁consult	-10.984
▁modified	-10.984
▁unlock	-10.984
▁longterm	-10.984
▁twist	-10.984
▁atomic	-10.984
▁motion	-10.984
▁tackle	-10.984
▁owl	-10.984
rithm	-10.9841
▁motives	-10.9841
▁horizontal	-10.9841
▁relay	-10.9842
▁edward	-10.9842
▁pilgrimage	-10.9842
▁debate	-10.9843
▁julius	-10.9843
▁manuel	-10.9844
▁preced	-10.9844
▁monster	-10.9847
▁inventor	-10.9849
▁sabin	-10.9857
▁lorr	-10.9922
▁jorg	-10.9999
nathan	-11.0041
▁whip	-11.0046
▁faci	-11.0058
▁attach	-11.0156
▁attribute	-11.0173
script	-11.0186
burn	-11.0195
▁potato	-11.0205
▁depart	-11.022
▁oppos	-11.0223
deficiency	-11.0224
responsibilities	-11.0224
▁albrecht	-11.0224
▁bielefeld	-11.0224
▁brilliant	-11.0224
▁bulgaria	-11.0224
▁cannibal	-11.0224
▁commemorat	-11.0224
▁competitive	-11.0224
▁december	-11.0224
▁endeavor	-11.0224
▁essays	-11.0224
▁explosion	-11.0224
▁fountain	-11.0224
▁infected	-11.0224
▁jesuit	-11.0224
▁lifestyle	-11.0224
▁limestone	-11.0224
▁oxford	-11.0224
▁pediatric	-11.0224
▁peripher	-11.0224
▁thailand	-11.0224
▁vienne	-11.0224
▁arnold	-11.0224
▁bacteria	-11.0224
▁chicago	-11.0224
▁hungary	-11.0224
▁rostock	-11.0224
▁commerce	-11.0224
▁memories	-11.0224
▁headphones	-11.0224
▁colonel	-11.0224
▁satur	-11.0224
▁thirst	-11.0224
▁disaster	-11.0224
▁garlic	-11.0225
▁survey	-11.0225
▁clever	-11.0225
▁relocat	-11.0225
▁stroll	-11.0225
▁outstanding	-11.0225
▁expertise	-11.0225
▁whale	-11.0225
▁sensor	-11.0225
▁accusations	-11.0225
▁spiral	-11.0225
trustworthy	-11.0225
▁shelter	-11.0225
ogram	-11.0226
▁explod	-11.0226
▁considerably	-11.0226
▁distinctive	-11.0227
▁charlie	-11.0227
▁jesus	-11.0228
▁henry	-11.0231
▁patent	-11.0232
▁eisen	-11.0232
▁abuse	-11.0243
▁wonderful	-11.0245
▁candle	-11.0251
▁chris	-11.0324
shire	-11.0405
▁remov	-11.0452
fumes	-11.0491
▁arrest	-11.0546
▁arrange	-11.057
▁assume	-11.0575
▁headquarter	-11.0615
▁synchroni	-11.0624
tractable	-11.0624
▁archbishop	-11.0624
▁attorney	-11.0624
▁breslau	-11.0624
▁comparative	-11.0624
▁confront	-11.0624
▁cultivation	-11.0624
▁deceased	-11.0624
▁diagnosis	-11.0624
▁emphasize	-11.0624
▁evident	-11.0624
▁expired	-11.0624
▁palatinate	-11.0624
▁privatiz	-11.0624
▁proposal	-11.0624
▁prototype	-11.0624
▁punishment	-11.0624
▁rupture	-11.0624
▁scandinavia	-11.0624
▁sculptor	-11.0624
▁spacious	-11.0624
▁technician	-11.0624
▁teenager	-11.0624
▁transmitted	-11.0624
▁vineyard	-11.0624
▁violations	-11.0624
▁virtue	-11.0624
▁batteries	-11.0624
▁treasure	-11.0624
▁activat	-11.0624
▁carinthia	-11.0624
▁impossible	-11.0624
▁manfred	-11.0624
▁judicial	-11.0624
▁timbered	-11.0624
▁ritual	-11.0624
▁serving	-11.0625
▁crater	-11.0625
▁veins	-11.0625
▁hurry	-11.0625
▁pigeon	-11.0625
▁compact	-11.0625
currency	-11.0625
▁bleach	-11.0625
▁tutor	-11.0625
▁escalat	-11.0625
▁erwin	-11.0625
▁smile	-11.0625
▁henrik	-11.0625
▁syria	-11.0625
▁fortification	-11.0625
▁tempt	-11.0625
▁theodor	-11.0625
▁binding	-11.0625
▁semiconductor	-11.0626
▁feedback	-11.0626
▁gentlemen	-11.0626
▁winning	-11.0626
▁tibet	-11.0627
▁framework	-11.0627
▁donau	-11.0628
▁plus	-11.0629
▁exert	-11.0634
▁differentiate	-11.0644
ipping	-11.0656
▁celt	-11.0693
▁diploma	-11.0897
undula	-11.0905
lateral	-11.091
▁raise	-11.0992
woman	-11.1003
▁absence	-11.1041
▁accumulat	-11.1041
▁administered	-11.1041
▁anonymity	-11.1041
▁arrondissement	-11.1041
▁braunschweig	-11.1041
▁constituency	-11.1041
▁diabetes	-11.1041
▁discontinued	-11.1041
▁enthusiastic	-11.1041
▁explicitly	-11.1041
▁financing	-11.1041
▁francisco	-11.1041
▁hemisphere	-11.1041
▁intellectual	-11.1041
▁irregular	-11.1041
▁leopold	-11.1041
▁mandatory	-11.1041
▁maneuver	-11.1041
▁mercedes	-11.1041
▁permission	-11.1041
▁receipt	-11.1041
▁refrain	-11.1041
▁regensburg	-11.1041
▁repertoire	-11.1041
▁sweep	-11.1041
▁transaction	-11.1041
▁twitch	-11.1041
▁verdict	-11.1041
▁vietnam	-11.1041
▁inevitabl	-11.1041
▁innocent	-11.1041
▁nikolaus	-11.1041
▁renamed	-11.1041
▁semester	-11.1041
▁solidarity	-11.1041
▁rainbow	-11.1041
▁nicola	-11.1041
▁sociology	-11.1041
▁ethnic	-11.1041
▁magnus	-11.1041
▁cartoon	-11.1041
▁tropical	-11.1041
▁rigid	-11.1041
▁replica	-11.1041
▁pliers	-11.1041
▁margin	-11.1041
▁robin	-11.1041
▁tactic	-11.1042
▁stamens	-11.1042
▁reinhard	-11.1042
▁incorporated	-11.1042
▁invention	-11.1042
▁stopping	-11.1043
▁interloc	-11.1043
▁silk	-11.1045
▁blur	-11.1045
▁niko	-11.1046
motive	-11.1052
▁spice	-11.1055
▁clemen	-11.1057
▁deceiv	-11.1061
▁alpin	-11.1097
moller	-11.1097
▁trauma	-11.1118
spiel	-11.1149
▁install	-11.1388
▁convention	-11.1434
▁nitr	-11.1447
▁appreciate	-11.1476
▁artillery	-11.1476
▁carbohydrate	-11.1476
▁categoriz	-11.1476
▁celebration	-11.1476
▁coincidence	-11.1476
▁crocodile	-11.1476
▁defensive	-11.1476
▁depriv	-11.1476
▁diagram	-11.1476
▁discretion	-11.1476
▁interference	-11.1476
▁intersection	-11.1476
▁migration	-11.1476
▁millennium	-11.1476
▁philosophic	-11.1476
▁pregnant	-11.1476
▁prehistoric	-11.1476
▁prescription	-11.1476
▁preservation	-11.1476
▁propaganda	-11.1476
▁rehearsal	-11.1476
▁smoking	-11.1476
▁stabilize	-11.1476
▁substantial	-11.1476
▁suspicion	-11.1476
▁ulrich	-11.1476
▁universal	-11.1476
▁unnoticed	-11.1476
▁yield	-11.1476
▁inflammation	-11.1476
▁laboratory	-11.1476
▁prominent	-11.1476
▁surname	-11.1476
▁venice	-11.1476
▁blush	-11.1476
▁utilized	-11.1476
▁acquaint	-11.1476
▁clarified	-11.1476
▁federation	-11.1476
▁fluctuat	-11.1476
▁texas	-11.1476
▁thigh	-11.1476
▁livestock	-11.1476
▁samuel	-11.1476
▁thief	-11.1476
▁comrade	-11.1476
▁latvia	-11.1476
▁guinea	-11.1476
▁valentin	-11.1476
▁charlotte	-11.1476
▁cliff	-11.1476
▁toddler	-11.1476
▁terrorist	-11.1476
▁premise	-11.1476
▁nightmare	-11.1476
▁session	-11.1476
▁cheerful	-11.1476
▁reddish	-11.1476
▁leash	-11.1476
▁sprint	-11.1476
▁paddl	-11.1476
▁sirens	-11.1476
▁overcome	-11.1476
▁withdrew	-11.1477
▁cement	-11.1477
▁tasty	-11.1478
▁forgive	-11.1479
▁squir	-11.1482
▁scrub	-11.1482
▁elect	-11.172
▁introduce	-11.188
▁easie	-11.1909
▁permit	-11.1927
▁accommodation	-11.193
▁acquisition	-11.193
▁affiliat	-11.193
▁amsterdam	-11.193
▁applicable	-11.193
▁applicant	-11.193
▁boycott	-11.193
▁cloakroom	-11.193
▁electrified	-11.193
▁electromagnet	-11.193
▁emphasis	-11.193
▁enthusiasm	-11.193
▁expense	-11.193
▁faculty	-11.193
▁figurative	-11.193
▁flirt	-11.193
▁geometric	-11.193
▁imbalance	-11.193
▁immigrant	-11.193
▁inconsistencies	-11.193
▁instructor	-11.193
▁katharina	-11.193
▁magdeburg	-11.193
▁mechanism	-11.193
▁mercury	-11.193
▁microwave	-11.193
▁pharmacist	-11.193
▁reflex	-11.193
▁relegated	-11.193
▁rendsburg	-11.193
▁ribbon	-11.193
▁semifinal	-11.193
▁simulate	-11.193
▁symmetric	-11.193
▁syrup	-11.193
▁vicinity	-11.193
▁yeast	-11.193
▁autumn	-11.193
▁koblenz	-11.193
▁restricted	-11.193
▁sigmund	-11.193
▁exploit	-11.193
▁surgeon	-11.193
▁bloom	-11.193
▁colonies	-11.193
▁depression	-11.193
▁minuet	-11.193
▁monkey	-11.193
▁generous	-11.193
▁trophy	-11.193
▁bargain	-11.193
▁indonesia	-11.193
▁competence	-11.1931
▁thrill	-11.1931
▁satire	-11.1931
▁bureau	-11.1931
▁spoil	-11.1931
▁madrid	-11.1931
▁tamara	-11.1931
▁caesar	-11.1931
▁probation	-11.1931
▁crab	-11.1931
▁styria	-11.1931
▁rascal	-11.1931
▁nicole	-11.1931
▁blond	-11.1931
▁argue	-11.1931
▁palestin	-11.1932
▁vogt	-11.1932
▁plasm	-11.1933
▁beetle	-11.1937
ophyt	-11.194
▁snor	-11.1949
alysis	-11.1953
▁quin	-11.1971
▁invasi	-11.2073
▁presid	-11.2133
gurt	-11.2279
piece	-11.2368
cursor	-11.2377
▁democrat	-11.2394
▁pilgrim	-11.2404
▁horizon	-11.2405
▁apprentice	-11.2405
▁abrupt	-11.2407
▁accelerated	-11.2407
▁antarctic	-11.2407
▁applause	-11.2407
▁astronomer	-11.2407
▁barracks	-11.2407
▁byzantine	-11.2407
▁celebrities	-11.2407
▁combustion	-11.2407
▁conversion	-11.2407
▁crucifix	-11.2407
▁cuddle	-11.2407
▁dinosaur	-11.2407
▁eberhard	-11.2407
▁entrepreneur	-11.2407
▁envelop	-11.2407
▁expedition	-11.2407
▁hymn	-11.2407
▁indirect	-11.2407
▁industries	-11.2407
▁intermediate	-11.2407
▁kennedy	-11.2407
▁migrant	-11.2407
▁napoleon	-11.2407
▁neolithic	-11.2407
▁outskirts	-11.2407
▁patience	-11.2407
▁provincial	-11.2407
▁registration	-11.2407
▁speculation	-11.2407
▁sympath	-11.2407
▁synagogue	-11.2407
▁textbook	-11.2407
▁unhealthy	-11.2407
▁unpopular	-11.2407
▁vegetation	-11.2407
▁violent	-11.2407
▁viticulture	-11.2407
▁wrinkl	-11.2407
▁botanical	-11.2407
▁marathon	-11.2407
▁physician	-11.2407
▁inflation	-11.2407
▁knives	-11.2407
▁schroder	-11.2407
▁brush	-11.2407
▁chestnut	-11.2407
▁alsace	-11.2407
▁backpack	-11.2407
▁lehmann	-11.2407
▁sniff	-11.2407
▁yolk	-11.2407
estimation	-11.2407
▁bleeding	-11.2407
▁bochum	-11.2407
▁boredom	-11.2407
▁froze	-11.2407
▁uncover	-11.2407
▁parrot	-11.2407
▁warehouse	-11.2407
▁protein	-11.2407
▁spores	-11.2407
▁seventeen	-11.2407
▁fischer	-11.2407
▁detach	-11.2407
▁petersburg	-11.2407
▁depth	-11.2407
▁output	-11.2407
▁decent	-11.2408
▁dentist	-11.241
▁falk	-11.2412
furt	-11.2496
hydr	-11.2509
▁drip	-11.2594
axial	-11.271
foot	-11.2868
scribed	-11.2899
▁sustain	-11.29
▁stubborn	-11.2907
í	-11.2907
▁ambassador	-11.2907
▁astronomy	-11.2907
▁barricade	-11.2907
▁breisgau	-11.2907
▁captivity	-11.2907
▁claustrophobi	-11.2907
▁compulsory	-11.2907
▁discriminat	-11.2907
▁dismissed	-11.2907
▁elephant	-11.2907
▁exempt	-11.2907
▁flavor	-11.2907
▁heilbronn	-11.2907
▁hydraulic	-11.2907
▁hypo	-11.2907
▁innocence	-11.2907
▁inspection	-11.2907
▁intercept	-11.2907
▁istanbul	-11.2907
▁mosquitoes	-11.2907
▁nationwide	-11.2907
▁phenomena	-11.2907
▁photosynthesis	-11.2907
▁prerequisite	-11.2907
▁protagonist	-11.2907
▁reinforced	-11.2907
▁reluctant	-11.2907
▁rhetoric	-11.2907
▁slovakia	-11.2907
▁strategy	-11.2907
▁supermarket	-11.2907
▁supervision	-11.2907
believing	-11.2907
▁aristocrat	-11.2907
▁asylum	-11.2907
▁buffet	-11.2907
▁cabaret	-11.2907
▁impressive	-11.2907
▁nectar	-11.2907
▁triumph	-11.2907
▁deliberat	-11.2907
▁january	-11.2907
▁offensive	-11.2907
▁rugby	-11.2907
▁counterpart	-11.2907
▁diameter	-11.2907
▁glott	-11.2907
▁incredibl	-11.2907
▁sepals	-11.2907
▁conquest	-11.2907
▁pretense	-11.2907
▁romanesque	-11.2907
▁farewell	-11.2907
▁intact	-11.2907
▁tariff	-11.2907
▁barbara	-11.2907
▁soluble	-11.2907
▁falcon	-11.2907
▁granite	-11.2907
▁restoration	-11.2907
▁reunion	-11.2907
▁allotment	-11.2907
▁sicily	-11.2907
▁vegan	-11.2907
▁wolfsburg	-11.2907
▁abdom	-11.2907
▁agnes	-11.2907
▁cousin	-11.2907
▁align	-11.2907
▁scheme	-11.2907
▁newcomer	-11.2907
▁headlights	-11.2908
▁costume	-11.2908
▁terminal	-11.2908
▁emulate	-11.2909
▁deviate	-11.2909
deutsch	-11.2909
ccup	-11.2909
▁converg	-11.2909
▁bertol	-11.2912
tropic	-11.2925
goblin	-11.2932
▁erik	-11.2938
imaginable	-11.3014
believers	-11.3078
meyer	-11.3209
▁unfit	-11.3235
▁devil	-11.3276
▁acquir	-11.3355
▁adopt	-11.3355
▁convert	-11.3356
▁excite	-11.3382
▁comfort	-11.3427
woke	-11.3427
▁happi	-11.3431
▁amphibi	-11.3433
▁absurd	-11.3433
▁accommodate	-11.3433
▁adequate	-11.3433
▁aesthetic	-11.3433
▁afghanistan	-11.3433
▁antiquity	-11.3433
▁archdiocese	-11.3433
▁avalanche	-11.3433
▁barbecue	-11.3433
▁brackets	-11.3433
▁censorship	-11.3433
▁clutch	-11.3433
▁cockpit	-11.3433
▁deactivate	-11.3433
▁dungeon	-11.3433
▁eclipse	-11.3433
▁enlightenment	-11.3433
▁explanatory	-11.3433
▁fragrance	-11.3433
▁horrible	-11.3433
▁imprisoned	-11.3433
▁imprisonment	-11.3433
▁indigenous	-11.3433
▁instinct	-11.3433
▁jerusalem	-11.3433
▁matthias	-11.3433
▁ornamental	-11.3433
▁python	-11.3433
▁rectangular	-11.3433
▁recurr	-11.3433
▁schizophreni	-11.3433
▁scooter	-11.3433
▁slaughter	-11.3433
▁sporadically	-11.3433
▁statistical	-11.3433
▁strategic	-11.3433
▁suffocat	-11.3433
▁unemployed	-11.3433
▁vorpommern	-11.3433
▁cavalry	-11.3433
▁devastat	-11.3433
▁grenade	-11.3433
▁prospect	-11.3433
▁reunification	-11.3433
▁vitamin	-11.3433
▁wisdom	-11.3433
▁wreath	-11.3433
▁almonds	-11.3433
▁hiphop	-11.3433
▁household	-11.3433
▁occupy	-11.3433
▁sediment	-11.3433
▁sketch	-11.3433
▁beatrix	-11.3433
▁provoke	-11.3433
▁xaver	-11.3433
▁pathogen	-11.3433
▁quarry	-11.3433
▁charcoal	-11.3433
▁plaque	-11.3433
▁multipli	-11.3433
▁platt	-11.3433
▁premium	-11.3433
▁cloister	-11.3433
▁emblem	-11.3433
▁relieved	-11.3433
▁chassis	-11.3433
▁okres	-11.3433
▁pylon	-11.3433
▁vague	-11.3433
▁trivial	-11.3433
▁swimmers	-11.3433
▁fisherman	-11.3433
▁jerry	-11.3433
▁sahara	-11.3433
▁seventies	-11.3433
▁cotton	-11.3433
▁duties	-11.3433
▁choler	-11.3433
▁gregor	-11.3433
▁ventilat	-11.3433
▁abundan	-11.3433
▁rifle	-11.3434
▁nurse	-11.3434
▁frederik	-11.3434
▁undertake	-11.3434
▁supervise	-11.3434
▁warrior	-11.3434
▁slam	-11.3434
▁martyr	-11.3434
▁guilt	-11.3436
▁wobbl	-11.3438
▁uneven	-11.3438
▁lichten	-11.3442
ointment	-11.3446
▁ammoni	-11.345
▁glue	-11.346
▁flap	-11.3462
▁westphal	-11.3524
patch	-11.3559
▁distinct	-11.3975
corporate	-11.3987
ncreas	-11.3988
▁fascinat	-11.3988
▁administrator	-11.3988
▁astronaut	-11.3988
▁bamboo	-11.3988
▁commuters	-11.3988
▁cuisine	-11.3988
▁cycling	-11.3988
▁decreasing	-11.3988
▁elevation	-11.3988
▁elongated	-11.3988
▁emigrated	-11.3988
▁expelled	-11.3988
▁firefighters	-11.3988
▁flank	-11.3988
▁gigabyte	-11.3988
▁godfather	-11.3988
▁hereditary	-11.3988
▁hurricane	-11.3988
▁kaiserstuhl	-11.3988
▁ketchup	-11.3988
▁maximilian	-11.3988
▁minnesota	-11.3988
▁monasteries	-11.3988
▁nurnberg	-11.3988
▁panorama	-11.3988
▁peanuts	-11.3988
▁platinum	-11.3988
▁prefecture	-11.3988
▁prejudices	-11.3988
▁prosecution	-11.3988
▁prosperity	-11.3988
▁refract	-11.3988
▁reproduction	-11.3988
▁saarbrucken	-11.3988
▁strategies	-11.3988
▁subspecies	-11.3988
▁surveillance	-11.3988
▁undamaged	-11.3988
ó	-11.3988
▁bettina	-11.3988
▁destiny	-11.3988
▁florence	-11.3988
▁inspector	-11.3988
▁pajama	-11.3988
▁baptize	-11.3988
▁promising	-11.3988
▁asphalt	-11.3988
▁gottfried	-11.3988
▁landshut	-11.3988
▁healthcare	-11.3989
▁illuminat	-11.3989
▁boulder	-11.3989
▁detroit	-11.3989
▁sparkasse	-11.3989
▁burgenland	-11.3989
▁fauna	-11.3989
▁ironically	-11.3989
▁arthur	-11.3989
▁illusion	-11.3989
▁ghana	-11.3989
▁shortterm	-11.3989
▁ignite	-11.3989
▁lounge	-11.3989
▁ancestr	-11.3989
▁schloss	-11.3989
▁dairy	-11.3989
▁overseas	-11.3989
▁kauf	-11.3989
▁predict	-11.3989
▁dawn	-11.3989
▁altona	-11.3989
▁mutual	-11.3989
▁martha	-11.3989
▁slum	-11.3989
▁cease	-11.3989
▁prompt	-11.399
▁pollute	-11.399
▁scam	-11.3991
▁lexic	-11.3996
▁boost	-11.3998
▁butterfl	-11.4001
▁blend	-11.4022
▁audibl	-11.4025
tolerant	-11.4053
▁accus	-11.4241
ctically	-11.4487
choke	-11.4506
▁decorate	-11.4526
▁threat	-11.4545
▁regime	-11.4548
▁magnify	-11.4577
▁dictator	-11.4577
▁homosexual	-11.4577
isexual	-11.4577
philharmoni	-11.4577
▁abstain	-11.4577
▁accuracy	-11.4577
▁agencies	-11.4577
▁anatomical	-11.4577
▁barcelona	-11.4577
▁bizarre	-11.4577
▁buddhist	-11.4577
▁cliché	-11.4577
▁confederation	-11.4577
▁cosmonaut	-11.4577
▁culprit	-11.4577
▁denounce	-11.4577
▁dictionary	-11.4577
▁earthquake	-11.4577
▁educator	-11.4577
▁embryo	-11.4577
▁flaming	-11.4577
▁hildesheim	-11.4577
▁hybrid	-11.4577
▁hydrochlori	-11.4577
▁injustice	-11.4577
▁insufficient	-11.4577
▁keyword	-11.4577
▁manhattan	-11.4577
▁mysterious	-11.4577
▁narrative	-11.4577
▁navigable	-11.4577
▁nonprofit	-11.4577
▁ordinary	-11.4577
▁philosopher	-11.4577
▁protocol	-11.4577
▁punctuat	-11.4577
▁recyclable	-11.4577
▁referendum	-11.4577
▁remscheid	-11.4577
▁repetition	-11.4577
▁scenario	-11.4577
▁schreiber	-11.4577
▁subscribe	-11.4577
▁sulfur	-11.4577
▁twitter	-11.4577
▁achilles	-11.4577
▁amendment	-11.4577
▁elsewhere	-11.4577
▁nikolai	-11.4577
▁utilities	-11.4577
▁cornelia	-11.4577
▁kruger	-11.4577
▁quantify	-11.4577
▁submerge	-11.4577
▁folklore	-11.4577
▁imperative	-11.4577
▁lithium	-11.4577
▁opaque	-11.4577
▁reliably	-11.4577
▁ridicule	-11.4577
▁leisure	-11.4577
▁messenger	-11.4577
▁vessel	-11.4577
▁adjoin	-11.4577
▁gasoline	-11.4577
▁taylor	-11.4577
▁residu	-11.4577
▁logistic	-11.4577
▁provocati	-11.4577
▁sultan	-11.4577
▁anhalt	-11.4577
▁globe	-11.4577
▁shatter	-11.4577
▁delegate	-11.4577
▁ecological	-11.4577
▁gloat	-11.4577
▁remix	-11.4577
▁upload	-11.4577
▁cliche	-11.4577
selotte	-11.4577
▁underpass	-11.4577
▁absent	-11.4577
▁mannheim	-11.4577
▁verona	-11.4578
blazon	-11.4583
continental	-11.4642
iddle	-11.4913
antonio	-11.4991
▁whil	-11.5158
aught	-11.5196
▁scott	-11.5199
á	-11.5202
comprehensible	-11.5202
habilitation	-11.5202
▁acceleration	-11.5202
▁accomplished	-11.5202
▁admiral	-11.5202
▁admission	-11.5202
▁ambulance	-11.5202
▁amplifie	-11.5202
▁antelope	-11.5202
▁anxiety	-11.5202
▁aschaffenburg	-11.5202
▁backdrop	-11.5202
▁basilica	-11.5202
▁brussels	-11.5202
▁cinnamon	-11.5202
▁cognitive	-11.5202
▁conspicuous	-11.5202
▁crusade	-11.5202
▁czechoslovakia	-11.5202
▁delicacy	-11.5202
▁deployment	-11.5202
▁deteriorat	-11.5202
▁dismissal	-11.5202
▁disregarded	-11.5202
▁doctrine	-11.5202
▁episcop	-11.5202
▁exaggerate	-11.5202
▁excursion	-11.5202
▁hooligans	-11.5202
▁infrequent	-11.5202
▁larvae	-11.5202
▁memorize	-11.5202
▁mortgage	-11.5202
▁oblast	-11.5202
▁olivia	-11.5202
▁osnabruck	-11.5202
▁overview	-11.5202
▁posthumous	-11.5202
▁prognos	-11.5202
▁proximity	-11.5202
▁pyramid	-11.5202
▁quartet	-11.5202
▁recursive	-11.5202
▁reminiscen	-11.5202
▁rhyme	-11.5202
▁singapore	-11.5202
▁sophisticated	-11.5202
▁strasbourg	-11.5202
▁stumbled	-11.5202
▁thunderstorm	-11.5202
▁tremendous	-11.5202
▁undecided	-11.5202
▁venezuela	-11.5202
â	-12.0094
ʿ	-12.1205
ə	-13.0051
ú	-13.8384
ñ	-14.8383
ū	-14.8384
ā	-14.8384
q	-14.8384
ð	-14.8384
